
/**
  ******************************************************************************
  * @file    network_data.c
  * @author  AST Embedded Analytics Research Platform
  * @date    Sun Jan  7 17:57:43 2024
  * @brief   AI Tool Automatic Code Generator for Embedded NN computing
  ******************************************************************************
  * @attention
  *
  * Copyright (c) 2021 STMicroelectronics.
  * All rights reserved.
  *
  * This software is licensed under terms that can be found in the LICENSE file
  * in the root directory of this software component.
  * If no LICENSE file comes with this software, it is provided AS-IS.
  ******************************************************************************
  */
#include "network_data.h"
#include "ai_platform_interface.h"

AI_API_DECLARE_BEGIN

AI_ALIGNED(32)
const ai_u64 s_network_network_weights_array_u64[ 30494 ] = {
  0xbda6f1fc3e13d96dU, 0x3deaaf863e1db905U, 0xbe028750bdbe48d6U, 0x3dcb02eabda1f589U,
  0xbdf25c8d3d371800U, 0x3e23471f3e14f329U, 0xbcdca650bd2bdb4cU, 0x3db7d86abe1fea1cU,
  0xbda8c2bfbd9911c1U, 0x3c7c0cb0bdd0c28cU, 0xbe3508e6bcefea58U, 0x3e2c78c13e1dcc43U,
  0x3da42ed2be12265eU, 0xbdd8af883da7ea0eU, 0x3e308e5bbe39dde9U, 0xbbd557403c996948U,
  0x3dab12f23e355789U, 0xbe28a4613d64e3a8U, 0xbe2132cd3e3564bbU, 0xbe1e3474bcc85ab8U,
  0xbd6ea4803d6e8a5cU, 0xbe048ed63dc20e8eU, 0x3da26a723e03090dU, 0xb7f5e0003e2a8c43U,
  0xbd56bddc3df54902U, 0x3e207f51be1dbb49U, 0xbe2301b63e33165fU, 0x3df79a523de41b0aU,
  0x3d99dd8ebe21adfeU, 0xbe1fff23be215a70U, 0xbd7a1e5ebe24f976U, 0x3cdfead0bd93b2ddU,
  0x3e2d10af3cc4c550U, 0x3de776523defdd22U, 0x3dbc2ff2be08306bU, 0x3e1a1411bca09b80U,
  0x3e24b9db3df41422U, 0xbe157b103e2e9575U, 0x3e0553c5bdf7de0bU, 0x3dfaae8ebd922306U,
  0xbde41e83bde36f5eU, 0xbcd7eeb0be3007d5U, 0xbda86f7e3d7964ecU, 0xbbc7a0803dc6fdeeU,
  0x3df42d163e2d4aafU, 0xbd7fff1abe315ce4U, 0xbe256f83bd411924U, 0xbd977256be345a9aU,
  0xbcf0f3203e09366dU, 0x3d5ec1f0bd73b094U, 0xbd846da23dfe3062U, 0x3e26c8d9be396d61U,
  0x3df9fad2be19a592U, 0x3e2c2ba5bd155224U, 0xbda6b738be0cddc5U, 0x3d992abe3e260991U,
  0x3d29f64cbe22363aU, 0x3d1c8ad0bccf7be0U, 0x3bab58403cf07be0U, 0xbca85d903e35d053U,
  0xbd251158be33d0a2U, 0x3d1c6d3cbdd0ea21U, 0x3da6e48abe068efdU, 0xbde4904bbdb8c81bU,
  0xbe1951d2bde003deU, 0xbde16b9ebdace084U, 0xbe0e6532bdd5e06cU, 0xbe36963abe1f834fU,
  0x3d18fac03d27ebf4U, 0xbd09f9d83deab9deU, 0x3e05bddbbc9b2ec0U, 0x3e2ba47d3d704fc4U,
  0xbd18fd40be2760e6U, 0x3e1016393daeaedeU, 0xbe0d4a40be020446U, 0x0U,
  0x0U, 0x0U, 0x3c304fc03d7bd21cU, 0x3db1e872bd71507aU,
  0x3cdbe8203d9e74daU, 0x3d854ef83d8b3622U, 0x3d12a5c4ba33b680U, 0x3dad3f863d58aa64U,
  0xbd4385a0bbc77610U, 0x3d89731a3c979120U, 0xbd7dbe8cbd4813e7U, 0x3cc1c2903dd5a44eU,
  0x3cc097f8bd4b94f1U, 0xbda60c4dbd961722U, 0x3d101a703d1b8074U, 0x3da9ab9a3db26deaU,
  0x3cea12903d9d4e38U, 0xbd47ffd9bcb30924U, 0xbd1ca0dcbd25b012U, 0x3d74abb43db126c0U,
  0x3d5a7ddc3db90d30U, 0xbd9f66c9bda51b0aU, 0x3c1178a03d2d99ecU, 0x3db19fdebc850e2cU,
  0x3ce18cf03dbc44c2U, 0x3ca4c0d83c3435c0U, 0xbcc65914bb1be000U, 0xbd91a5acbc7835f8U,
  0x3dbe8ba6bd196cccU, 0x3d636b5c3a85e240U, 0xbda0d9dcbd3466aeU, 0x3cdbcbb03c6bb768U,
  0xbc94cfc03dc1d57eU, 0xbc1109f03d880022U, 0x3cf185c83d7f7374U, 0xbc94202cbc96ab14U,
  0xbdb821cabd166a2aU, 0x3dbf16da3d7049ccU, 0x3dc980b83b424260U, 0xbcc9f5f43dc3a15eU,
  0x3c8c11803c4bb270U, 0x3db310ee3db0a08cU, 0xbda24ba0bc73db00U, 0xbd7203293da1128cU,
  0x3d66b228bdb782f1U, 0xbd2440803d3aed68U, 0x3d1a6870bdbb20e3U, 0xbdd30743bd81a7a4U,
  0x3db2c4263c873e88U, 0x3bb501803ba61400U, 0x3d71f0c0bdad5f4cU, 0x3dac1ff4bd3b19aaU,
  0xbd1718ba3daaee12U, 0x3c84c830bd92c000U, 0x3c7dc3603bc5a940U, 0x3da905283d4a1880U,
  0x3d90ba74bd7debfbU, 0xbd83d834bdc86729U, 0xbaa2d3803db49ed4U, 0x3d1148cc3d89946cU,
  0xbda738be3dbeb59aU, 0x3ccdb6f8bda1a4d0U, 0x3d9a979cbdbcf64fU, 0xbdb3c6c93db20128U,
  0x3cf79150bdba17cdU, 0xbd97d2d9bcc8ac88U, 0xb9a47700bc9d6e3cU, 0xbcd46db03d146ca8U,
  0xbd9e96103daab8f6U, 0x3d6f50e0bd6e5242U, 0xbdcf0b90bd42be29U, 0x3d80624a3db19726U,
  0x3cc14d203db93d14U, 0xbd9a03813dbfcfc6U, 0x3daf139abdca3364U, 0x3d3fbe883c2a73e8U,
  0x3dc5e7203d5d3f54U, 0xbdaee5333db7b314U, 0x3d82c2783d47229cU, 0xbd174208bc82aa10U,
  0x3dd233403d082b84U, 0x3d88dc5c3cfcf148U, 0xbd58adf0bd740be0U, 0xbcea739c3d8470b6U,
  0x3d9075683ccc1798U, 0x3d0a0b143dbe4a58U, 0x3d9c93f03d0f4298U, 0xbce7b848bd8e03e0U,
  0x3cecc9283b97d4f0U, 0x3db232d63bb8eb90U, 0xbbbf14f03d224bfcU, 0x3caf24183dabd5e6U,
  0x3cd23db03b35ac00U, 0xbcaae7f43c4fbb68U, 0x3d020a58bdb26633U, 0x3cc83760bdba65edU,
  0xbdbeb3e4bca0fd50U, 0xbc7c9f583d655200U, 0xbcfb0f6cbc4b84e0U, 0x3dba220cbd3086fcU,
  0xbd4fdf0b3d622380U, 0xbd0d394c3d8770a0U, 0xbca41c54bbf5fe60U, 0x3b0fa3003d3c9088U,
  0x3dc58f56bc3d3ff8U, 0xbda7bb42bda341a0U, 0x3db6468e3c9da150U, 0x3d4f017cbd4f36d5U,
  0x3dc77d18bcc55bbcU, 0xbd24d0603d9e034aU, 0x3d962fec3da01764U, 0xbd8bc3cc3d2e0110U,
  0xbd66c4cb3d3855b4U, 0x3d9f25dc3d4f8c08U, 0xbc9423c83d3fb3d4U, 0xbc43c238bd9e309eU,
  0x3dc3ed82b9be4d00U, 0xbc6bb1a83d42b8e4U, 0xbd7cd0833ccc46c0U, 0x3d87dcce3d17f398U,
  0xbd1ea7703dbb34e6U, 0xbd8dc93ab9d74a00U, 0x3d2a975c3d95e502U, 0xbd17f3e83d4c1318U,
  0xbc9cb1c0bdb2b790U, 0xbd3236a33d772e70U, 0x3d89c82abdbb276aU, 0xbd0b0054bcb76684U,
  0x3bd97fa03dd28bbaU, 0xbcd7dfb03cd46500U, 0xbd80bfb7bdcbc3c6U, 0xbdaa9dcabdc901f3U,
  0x3bc566a0bd3088f1U, 0x3d86c9443d04d2acU, 0x3d95010c3cd5b498U, 0xbdd528973ca9d5c8U,
  0xbd754958bd5f5276U, 0xbd745757bda1cdd5U, 0xbd4389ba3d0f73d0U, 0x3b721ec03dbf46feU,
  0xbd41b121bdc68cdbU, 0xbc7737503d4fe380U, 0x3cea9f683d928718U, 0xbc836228bcee7c44U,
  0x3d8c340abcbf2368U, 0xbc2eba183dc6d8c2U, 0x3d715a1c3db66e28U, 0x3dadee563d8d086cU,
  0xbdcb325c3ccbb9a0U, 0x3d3e67943d815c6cU, 0xbbd88cf0bd0c51b0U, 0xbdb6214fbd7a76f4U,
  0x3c19ec783d15faacU, 0xbd0b9f38bdc13d1aU, 0x3d8291743d921d00U, 0x3cf36df83d1cc37cU,
  0xbdb15258bd1620a4U, 0x3d884852bd523082U, 0x3d5bf504bdcc18baU, 0x3d1febc0bc5005e0U,
  0x3c664238bad6cc40U, 0x3d421a18bcd6230cU, 0xbbe41ed03af28d00U, 0x3d24010cbd7293bdU,
  0x3db01daa3d15fbd0U, 0x3dbfaa943c5f45e0U, 0xbdaa34063d01e5c8U, 0xbd9555733d45e2b8U,
  0x3cdceb703dd56902U, 0xbd8681c5bc981ad8U, 0xbd7cd02cbd976835U, 0xbd5968f33d7e8b00U,
  0x3dbf059ebd8aa4b6U, 0x3c21fbb0bd34d620U, 0x3c981e30bd4b65d6U, 0x3d8546da3dc5c712U,
  0xbd86280abd8bc3a4U, 0xbd6bb4273d774a84U, 0xbdaedb543c6533e8U, 0x3dc9189e3dcbe018U,
  0xbd94e9cabc64d470U, 0x3c8db5f4bcf10ea8U, 0x3c2c80c0bdd369a0U, 0xbc14b500bd3d2ca5U,
  0xbd6a75123d1b27f0U, 0xbdb7dc813d0df870U, 0xbd85c10ebd9aa6d8U, 0x3c711d00baf37e80U,
  0xbd7cc709bd6d074aU, 0x3b9219e0bda76b19U, 0x3d50d8b83dc050f6U, 0xbd50d0c8bd8cdcdaU,
  0x3d4f47fcbd9bf97aU, 0xbac8c5c03d8534c8U, 0x3da7a2063d94fa80U, 0x3d302f0c3dc1eb62U,
  0xbdcaab09bd0dce6cU, 0x3d4277443d6dbfc0U, 0xbd0a9dae3d39786cU, 0x3db04bf6bd8e03bbU,
  0xb9aa4d00bc5898e8U, 0x3cafdb50bcdef574U, 0xbd88426e3d9d4c18U, 0x3dacc52a3d940d0cU,
  0x3d97599cbb806340U, 0x3d9248123d442238U, 0x3d814554bdba346eU, 0xbd2260483da4841aU,
  0x3d90f06ebdbf7630U, 0x3cc5ec40bd887cbaU, 0xbd895c7e3d633164U, 0xbd279c343d81d2d6U,
  0xbcc4d8f83d404b24U, 0xbdb1c29cbda547d6U, 0xbd0ecd4c3d7a4d04U, 0xbd89b972bd337c54U,
  0x3cb28b58bccfccccU, 0xbd781839bd53ee06U, 0xbd3d2128bd90f7ecU, 0xbba127c0bb140900U,
  0x3d1b50a0bd1d7e58U, 0xbd0176a0bdc4a314U, 0xbda92343bd7514e9U, 0x3dcc12c03d959abcU,
  0x3d084798bd62c545U, 0xbdcd8e05bdcaf85aU, 0xbd03d094bd1127e0U, 0x3d3c485cbd9c1ecaU,
  0xbd2ee7493dc30d5cU, 0x3c2040003d714a28U, 0x3d8a6fa0bd81aec8U, 0x3b2a93e03d67fbd0U,
  0x3d2de1d03d7b5ce4U, 0xbd7dc1c93d167e9cU, 0xbdae945e3d335e10U, 0xbd7b90f5bd5f0c6eU,
  0xbdc88de9bd1a77deU, 0xb9106c00bd779686U, 0x3dcaac60bd3379b7U, 0x3cbf09483c27b060U,
  0x3b343d20bd6fff6dU, 0x3d987e70bd0cf570U, 0x3d7ba6d83db57096U, 0x3da06bbc3d0d7bfcU,
  0xbd95c16fbd36378bU, 0x3d98c302bc86deb4U, 0x3b85b0703c048670U, 0xbdc7b02bbcc5912cU,
  0x3d9b4eeebdd514e7U, 0xbd322d1bbd3bb732U, 0xbdcb9715bdb083aeU, 0x3c54aa783d9fdd30U,
  0xbceea858bc28f968U, 0x3d99d680bd283964U, 0x3d931316bd726096U, 0x3dbc0a343d323b78U,
  0xbd787b01bc766598U, 0x3dd43ceebd7d8d82U, 0x3cb45770bcf539fcU, 0x3c6e81483d23149cU,
  0xbdd26813bd64b7f3U, 0x3db9220abb95fd10U, 0x3dd473a03d90f8a0U, 0xbd5b2398bd327fa5U,
  0x3dcb59b23cce0f00U, 0x3da66bfabdc16319U, 0xbcdd20603d273ee0U, 0xbd2cc8d8ba0e3b00U,
  0xbd987f1ebc32f530U, 0xbdd3d8b83cb01db8U, 0x3d832e34bb63e1a0U, 0xbd69b0943d0b7578U,
  0x3dc6de963dba56d2U, 0x3d7a953c3d558b14U, 0x3ca5a914bd452896U, 0xbdd16b533d963398U,
  0x3ce6a2f03db8b9a8U, 0xbd8e7f40bd9dab66U, 0xbd5d164dbd5a3df8U, 0x3c949b5cbda6f190U,
  0x3d00459cbd081c3eU, 0x3c5f64e83da55c10U, 0x3dd440b4bdc1e155U, 0xbd3c78943db35a9aU,
  0xbd5936e539f2eb00U, 0x3d011a943db53688U, 0x3d5f60b83cf41698U, 0x3c5f1b103d13f978U,
  0x3db4e4e03d5e1ff8U, 0xbc1ddee03d93c558U, 0xbd769b4e3d38c268U, 0xbdac98863c58b370U,
  0x3d23b9283d13ffc4U, 0xbdb373483d503d98U, 0x3d4641bcbcdf9fb4U, 0xbb4a0200bc31d7a8U,
  0xbd2d4e68bd8f3c5eU, 0x3d3a99a43b8f69a0U, 0xbd84436bbc9a08f8U, 0xbc25f370bd77a743U,
  0xbbe0ea80bd1af3c6U, 0xbd010f4ebdc29c0bU, 0x3c71d0f83d4c434cU, 0x3da9a05abcd6eba4U,
  0x3ba09b60bd6da2d0U, 0xbdc51ac0bdad930aU, 0xbd3a6a5a3d189e50U, 0x3da41b40bda0cc1cU,
  0x3d6c6cd0bc569a60U, 0xbbb681e0ba7dd500U, 0xbd0262c2bcd36e0cU, 0xbd1149043d717930U,
  0x3d87304cbd57c87fU, 0x3dac3072bd157ca2U, 0x3d42e244bdb0a735U, 0xbdbd1ad6bcd0eca4U,
  0x3d8a9f263cffc9c0U, 0x3d1568783db170eeU, 0x3dc400163c185038U, 0xbd6a5e0a3dc8c712U,
  0x3d40f158bd771d1bU, 0x3c8fd68cbdb8896aU, 0x3d309bcc3dd3950aU, 0x3dacba723d6c5e94U,
  0xbd6e1205bd810c4cU, 0xbca3b0c03db0ccf6U, 0x3da993203dad3feeU, 0xbdcf99ed3d286638U,
  0xbba9d2a03dc4219eU, 0xbcd6be283d2b089cU, 0x3ba149303d837ec2U, 0xbd8960ccbcd4cb88U,
  0xbd4d2e313d562a64U, 0x3d8ea998bd3bbc43U, 0xbc9916643ce53378U, 0x3dae75d23da470f4U,
  0x3cc74be8bdaf7b72U, 0xbd96d4883d906c72U, 0x3be10610bd1b836aU, 0x3d8f24123d3b20c4U,
  0x3dbe5fbc3d5bc170U, 0xbd5797cc3db4681eU, 0x3d8314603dc61e1aU, 0x3d52eb28bc1e8c10U,
  0x3da726b0bdc61695U, 0xbbcf9ec03dbd7c82U, 0xbc0a1c88bd68fe9aU, 0x3dd01fd6bd448977U,
  0x3d1d53803d8a2b30U, 0x3da04d903cd563b8U, 0xbd92a4f4bdba7642U, 0xbcf4d40cbd486070U,
  0x3d1e73f439881f00U, 0x3d1045143dab610eU, 0xbd99186fbd9dfa7aU, 0xbcb2586cbd0dca52U,
  0x3dc3373abd8809eaU, 0x3b2712003db61028U, 0xbdc750ae3c8e27b4U, 0x3d03b190bd9bf099U,
  0xbcb1a608bda110ccU, 0x3d165b20bd4c3a8bU, 0x3d8251aebd4c0f18U, 0xbcaae48c3dd37190U,
  0xbd4f3f013d7864bcU, 0xbd2e91183d8484acU, 0xbda3ef263cb07030U, 0x3dc4ba983d9af6eeU,
  0xbcc87c38bdb798beU, 0x3caff398bd1d8634U, 0x3dab1d4abc6e54e8U, 0xbd5fd9bf3c06a4b8U,
  0xbdc38c64bd36804bU, 0xbbf8a730bce53ef8U, 0xbd1c4a18bdbdb495U, 0x3d9ff830bdb2d93fU,
  0x3cb1ed183c54d150U, 0xbd6db47dbd4b1b3cU, 0x3dac966c3dcbc42eU, 0x3d90a1643d87957eU,
  0x3c8f24843d8648aeU, 0x3bf1c1003d91798aU, 0x3d23f26c3da05d52U, 0xbdc329663d54ac60U,
  0xbd881d143d9ef09aU, 0xbd3614023d3b40acU, 0x3db4d1363b288000U, 0xbc696df83cb727b0U,
  0xbd49efc33d6ff1e0U, 0xbb9fc4403d954a46U, 0xbc5a2b58bc3d3608U, 0xbd1b4d8abc8e5340U,
  0x3c0f33483d76edf8U, 0xbd909e3b3cf29268U, 0x3d6747183af70000U, 0x3ce1a0983da51c60U,
  0x3d1cd0983c099f80U, 0x3cd4cd78bd9b40f5U, 0xbd54d66bbd3c0c7aU, 0x3d554d203c88e924U,
  0x3d7ca19cbd22e574U, 0xbd91c718bdcbde94U, 0xbd8693943cdaff88U, 0xbdb7e7d33d863a90U,
  0xbdbcdd523d58bd10U, 0xbd49bda73c8d3330U, 0xbd0189083d1f4c00U, 0x3da4eaaebc41e298U,
  0xbc614a90bc208220U, 0xbdd27cb03ca02964U, 0x3d105bc8bd38f4c6U, 0x3da980663dbdb6b0U,
  0xbbabb5a0bdbcfca0U, 0xbd09c0aabd82b530U, 0xbdd0346abdc98699U, 0xbcaf00d8bbdabe30U,
  0x3dc979883d48e364U, 0xbdbd8422bd72e4a9U, 0xbd6bd07c3d050b48U, 0xbd8a32bcbc8fe0fcU,
  0x3d4c2c98bd5af3c9U, 0x3ca5bedc3c26a1a8U, 0x3afb9e403d5355c4U, 0x3b5791e03b8776c0U,
  0x3d7b0d5cbd1bbcf0U, 0xbcb532743d05d6a4U, 0xbdb9073fbca6cf74U, 0xbcc3495cbbd4d600U,
  0x3bd90a10bda88d9aU, 0xbd04adf4bdcc9a3aU, 0xbd9eac1a3d8eeb96U, 0xbd8c54283d1ea204U,
  0xbda0194c3d311f24U, 0xbd72082cbbc3cdd0U, 0x3c9213a4bd6c24c6U, 0x3b29dba03c89012cU,
  0xbd4e96313c93d25cU, 0xbdac052a3c1f6bf8U, 0xbd89f7ecbd16925aU, 0xbc7ae480bd8fad38U,
  0xbc8b2ff43d8e3afcU, 0x3d8c0fd23d5f88ecU, 0xbd58d83dbd78b5c8U, 0xbd8640a9bdbbc70cU,
  0xbdc5e88cbd94ad62U, 0xbda2e31dbdb6e627U, 0xbad8d9003cee3c40U, 0xbc37f300bda8a126U,
  0xbd84f862bd8655a4U, 0xbdc775bb3d8afb82U, 0xbd7d6230bdc8c0c3U, 0xbd14904cbd426eceU,
  0x3dc0464cbdb9f961U, 0xbc9116acbd637a9dU, 0xbd08836abcb522c8U, 0x3cd052283dcfed9cU,
  0x3ac9aec03c8af708U, 0xbd36be343dc8f5feU, 0x3cd3f8383cc9d930U, 0x3d8cc252bd54a64bU,
  0x3db9951a3d4e0790U, 0xbd8fc7ebbc46a270U, 0xbd8b3c6c3be81d20U, 0x3db613f4bdae1a1aU,
  0xbd9026c83d198a5cU, 0x3d55f1f03d405848U, 0x3dc808ce3da5ccd2U, 0xbd5b41e9bbd5f940U,
  0xbda3aa62bbb97540U, 0xbdbad0f23d8c0104U, 0x3d54df6c3da42e4cU, 0xbd3ad414bd1fa350U,
  0xbc6a4aa8bdb04402U, 0xbcf93c543d83e7d2U, 0xbd90c222bd4cb489U, 0x3d9466203db8c4deU,
  0x3d384ab0bdcca03cU, 0xbd30a36c3d4ee1c4U, 0xbd02a56abd309020U, 0x3d823248bd884573U,
  0xbdb68e5abd1d5a48U, 0xbd317a803cd15ed8U, 0xbd7c5109bcb72894U, 0xbd40de913dada80cU,
  0xbd0f01363d2353d8U, 0x3c7280e0bc5470e8U, 0x3da62c043dbecaacU, 0xbc1ed270bbb54be0U,
  0xbd1da086bd8be506U, 0xbdbf45debd93fdc4U, 0x3db715f63dc21aa6U, 0xbd192b363d807668U,
  0xbd4598debd91bd5eU, 0xbcc2d040bdb1ce30U, 0xbc27a280bd839022U, 0xbdd35c77bd1b86ceU,
  0xbd8688423ca960c8U, 0xbd1323f63d5731f8U, 0x3bb85490bdad57e9U, 0xbd47635dbd0c088cU,
  0xbd60036bbd829e1eU, 0xbd945fce3c881eb8U, 0xbd6a32ed3d8e6cfaU, 0x3d05f98c3c699918U,
  0xbdabb0c8bbf71ee0U, 0x3d2f87083da0d4a4U, 0x3d7f7798bd90c28aU, 0xbd133c9cbd689490U,
  0x3d6e4d88bdc712e9U, 0xba27b8803d5aff70U, 0xbdb127e6bceb3b34U, 0xbc6b74703d1c3724U,
  0xbc18e900bd8926ecU, 0x3d944bac3db1d4aeU, 0xbdc752c8bb8574b0U, 0x3c97e1f83d9f31baU,
  0x3da62ad0bc499ee8U, 0x3cd9cbb0ba8cde80U, 0x3d99378cbd2e5ea5U, 0xbd2045ea3ce5b518U,
  0x3dcc2e5a3c09ac40U, 0xbcf15b1cbd54faf3U, 0xbc9ac25c3d2b8514U, 0xbcdbc2483d340828U,
  0x3da7b0a6bd0b2fc6U, 0x3da96a9abd40ef6fU, 0xbc82d394bd830572U, 0xbc55be883d908e4aU,
  0xbcbd64bcbbb9df60U, 0xbd858ab4bcad7494U, 0xbc270d70bd61e52eU, 0x3b9e4de03c25ab60U,
  0xbd078a62bced0aa4U, 0xbcf8fd30bcd29768U, 0x3d1ca7503c4d2320U, 0x3da70a38bdc85d6fU,
  0x3d9ce9d23d4ebfe4U, 0xbd544e673cc77438U, 0x3d22a9a83d607d40U, 0xbc8540fc3c6afa58U,
  0xbd7efbd4bbafb210U, 0x3cfb14f8bcc68254U, 0xbd203bdcbc2184f0U, 0x3d64f7083da359ecU,
  0x3d8e0c76bd42189cU, 0x3daf4642bdcd2d72U, 0x3d69c2403d228cc8U, 0x3bb31c403dc978c8U,
  0xbdd0e9003dd2e398U, 0x3cf2dab03dccc246U, 0xbd2b3130bd2421aaU, 0xbd8eca63bd9a3a6bU,
  0xbd069cbe3bb4e410U, 0xbd0686a6bcd138b0U, 0xbc82cc38bdc7b459U, 0xbc71b0103d8452c8U,
  0xbd2e74303b90f250U, 0x3c8e90b83b0e41a0U, 0x3ce6a6103cba16a0U, 0x3c367dd0bdcb16abU,
  0x390b76003d1dd6e4U, 0x3c672b58bd821f4eU, 0x3d2b55703c83dbd4U, 0xbbfff8203d86bbe8U,
  0xbc0ac8c03dcbed54U, 0x3da62b1cbd08e75eU, 0xbd2dde7dbdb92a1eU, 0x3dd2cb8c3d1a3160U,
  0xbd25986a3d9919c4U, 0xbd89f374bcc2c950U, 0xbd11f5d8bc93e108U, 0xbda1a6fb3d173ab8U,
  0xbcbea3303a903cc0U, 0x3d7cc3b8bce9f038U, 0x3dc11f5c3dadecb4U, 0xbdba72583d8a3ed4U,
  0xbd340a24bdb2f174U, 0x3d701684bda30ba4U, 0x3d253ac8bd913f8cU, 0xbc5723003da87c3aU,
  0x3d21d4d03bed1eb0U, 0x3d95cd58bccf0d20U, 0xbd7934eb3dca00e0U, 0xbdbef557bb9a5a70U,
  0x3b1b1ba0bcd4994cU, 0x3d659ea43cb92288U, 0xbcf76da4bd415f6dU, 0x3d196bb4bdce1b13U,
  0x3d5cc9e83d5ea570U, 0x3c880ba8bd2f8c43U, 0xbdc27cf5b9bd1d00U, 0x3bce8060bcd0cd84U,
  0xbd9a4f5f3c3958a0U, 0x3dc14c80bcfc0aecU, 0x3d822a183d349b4cU, 0xbd5c7c9c3d9e11a6U,
  0xbda3bf7c3d62e604U, 0x3db8d52abbfc5bc0U, 0xbd5757d3bd66dfd2U, 0xbd4ea002bd2b271cU,
  0xbcadec60bd9f0d3cU, 0x3d439a483cd2a1c0U, 0xbd61b7893c9bbf08U, 0xbd42096abba081b0U,
  0xbc5f29b0bd42e5ccU, 0x3dcb5e14bd77f50dU, 0x3d26bcf03d888ba0U, 0xbd7944d23bb08180U,
  0xbd3d7f79bc8aae8cU, 0xbcbfa4e83d10bb2cU, 0x3d9ae0e03d872ae4U, 0xbc47a9a83b29eda0U,
  0xbdb8f682bd555edaU, 0xbd9f526f3d7f0f7cU, 0x3d925c10bc256d58U, 0x3d9954383cec01d0U,
  0xbcd540b83dd33dd6U, 0xbda83a80bdc808dfU, 0x3d9e2fbebd525b12U, 0xbd62d315bd80b08bU,
  0xbd5cc2a43dbb4210U, 0x3d8d27d43da44898U, 0xbd054fb6bcaf6184U, 0xbdc3c995bbf57c40U,
  0xbcfc4fdc3d6523b8U, 0xbb83c3a0bd17c274U, 0xbd838da4bcdaa7dcU, 0x3dcf984abdd2d15eU,
  0xbcac82b0bdb759deU, 0x3c43a5e8bd339746U, 0xbcf19e003dbb5dcaU, 0xbc95cd8c3d07e31cU,
  0x3d08d1cc3d454fe8U, 0xbdcba2603d65c98cU, 0x3d07231c3db9eb3aU, 0x3ce8d7d0bd82cc71U,
  0xbd820aae3ca32e18U, 0xbd75f04dbd65e492U, 0x3dc725343d58cd60U, 0xbc7d9608bdc9c31cU,
  0x3c8277183d086d14U, 0xbd2b0d923dbc895eU, 0xbda8ee69bdb2d90dU, 0x3b08b4c0bdd04d35U,
  0x3d80393ebda45d86U, 0xbdcf8817bcb30710U, 0x3d32fa10bdcb5a1dU, 0xbb6f83a0bc8bf1c0U,
  0x3d205d8cbd5754aaU, 0x3c87ebf8bd4337d0U, 0x3d215fa03d4dc7bcU, 0xbd9e7946bd44224cU,
  0xbd9ee4983a70aa00U, 0x3db0df7e3d812706U, 0x3dbea06a3dae95ecU, 0x3dcd3f30bdbe1af4U,
  0xbd8d02663d6f2188U, 0x3d0bc93cbca448a0U, 0xbdc9722a3db198b4U, 0xbca771e0bd9d271eU,
  0xbd259814bc35ed90U, 0xbdcc5c87bd5ff2ddU, 0xbcbdcecc3dd5b120U, 0xbd923cfabc1c10b0U,
  0xba5c9f803d2bad94U, 0x3d3009683d3cc1ecU, 0x3d07c3043da7288aU, 0x3dc039263da37c14U,
  0x396d0400bd9a149cU, 0xbc31c1683da2d168U, 0xbd86f3a43c051cc0U, 0x3da401ba3d21bf70U,
  0x3d012558bd8387e9U, 0x3d9b8c5e3d48cf7cU, 0xbd58e980bc5f09e8U, 0xbd92db6cbcdf5cf4U,
  0x3db8c87c3db4e396U, 0xbda0ef88bccee464U, 0x3dc010f0bd57c79cU, 0x3cc147703cd05540U,
  0x3d3306acbd73d8dbU, 0x3d0c2be83caa8b78U, 0x3c1821a03db77828U, 0x3dbc8cd23d7e02ccU,
  0x3dc19d923d99eb9aU, 0xbd9da5433bf48630U, 0xbd330db1bd94cbb6U, 0xbd8ad806bd871e74U,
  0x3bdc5660bd952f1bU, 0x3d8b7fb6bd9edd3eU, 0xbb3048803d2a7c48U, 0xbd8a23a23da08e04U,
  0x3d1e8cdcbbc6daa0U, 0x3d2a3690bdd51e76U, 0xbca11664bd992df3U, 0xbdca141fbcbdc07cU,
  0x3dc0b922bd8f594cU, 0xbd45addc3c6dad90U, 0xbdb55c24bd20ec3eU, 0x3b662720bcfd2ef4U,
  0x3d20c5d4bdca9389U, 0x3dcc148a3d536448U, 0xbd4a48193b9a5c50U, 0xbd5820423bbf6850U,
  0xbcf1cbdc3ba000a0U, 0x3d915d46bda65db4U, 0x3d8128303d13219cU, 0x3d534d2cbd8ab4c6U,
  0xba1e7c00bdd58e24U, 0xbc2854603d5aaf44U, 0xbd1bb396bd236d98U, 0x3d4df0703c97affcU,
  0x3b859510bcce78d0U, 0xbdcd3ddbbdd0add5U, 0xbdafc15cbd91fcceU, 0x3d7a5bac3d61a2dcU,
  0xbd8ce48ebd4624b2U, 0xbda59e18bdce0fdcU, 0x3d152684bbc3d160U, 0xbb7224403dc3a28eU,
  0x3dd474643db8e52cU, 0xbc3b34b0bd47fc1dU, 0x3b5e30c03cd9cf60U, 0xbdac82abbdaa3000U,
  0x3d0e96e8bdb8f632U, 0xbcdc3dac3dcf0bfeU, 0xbd559bedbd1b1216U, 0x3cccfea0bd8242fdU,
  0x3d9fc4a63d9813ccU, 0x3c6a5e00bdb2d0e1U, 0x3dc7ec843d8671e4U, 0xbd132a323d694f98U,
  0xbc633618bd6566e6U, 0xbdc5398c3d150b98U, 0xbd0b92003c2acb38U, 0xbd09e20a3dbacbb2U,
  0x3d4ff2343d997f96U, 0x3d8866a23cc0f6a8U, 0x3d9066eabd3fd48aU, 0x3d4f84dc3cbad6a0U,
  0x3d2cc4683d35be8cU, 0xbd5cd375bbf64aa0U, 0x3d66f598bd917213U, 0x3cc742c83d9cd878U,
  0x3cb49718bdbcbbe2U, 0x3db9dd6ebdc49739U, 0xbda0f41abd96e3faU, 0xbdd20f7d3d0f6818U,
  0x3d2f3b94bd821ee0U, 0x3d432bfc3c55cbb0U, 0x3d53eb78bd111054U, 0xbc97730c3da83eb2U,
  0xbd08fb94bda05391U, 0xbd9470ef3cdda888U, 0xbc5fa6483d990496U, 0xbcb296a0bba49d80U,
  0xbd17a3823db2b12eU, 0x3cce88983d6cc0f8U, 0x3dc699983d04d7d0U, 0xbd4421e73d554888U,
  0xbcdbf7dcbd8c4db8U, 0x3da49724bd8a7afaU, 0x3dd20b723d72c3e4U, 0xbd494e6b3dbe33d6U,
  0x3dcc7bc4bcda96f0U, 0xbc9cee48bdc96fcaU, 0xbc2ab120bd5338b4U, 0x3d0434e0bd0ff52cU,
  0x3d03c0c0bcca7f68U, 0xbce45e683cfd1f30U, 0x3d99ac263dd20c2cU, 0xbd1b7d68bd2e253aU,
  0xbdcc4bef3d2dd5f4U, 0xbda37804bd4e98e8U, 0x3dd4663a3d35b03cU, 0xbd59ec1c3da3a0d4U,
  0x3cc359d0bdd416c5U, 0x3c5192c8bd809744U, 0xbdbb5c4abceb92f0U, 0xbca73e203b1d0f60U,
  0xbd0c54323d097b8cU, 0x3d7b85083dc74754U, 0x3d251f48bdd54b30U, 0x3a538980bbaeb400U,
  0xbd3de7c33dce3218U, 0xbdc45b88bdb51bbdU, 0xbd0f26dcbd354871U, 0xbdbdc4863d4b76f8U,
  0xbd0bd62e3d6109a8U, 0xbd4ba09dbd1d55faU, 0xbd0d32043d26d85cU, 0xbd39de86bdcb7168U,
  0xbbfd6680bbe86ea0U, 0xbdaa06ea3d80c26eU, 0xbd97012fbd57bc54U, 0x3c8cec2c3c30ff88U,
  0x3d6a83d8bd5cf46fU, 0xbcf65b783c85f640U, 0xbd12e05a3d7f6cc8U, 0x3b9cc530bd8bdf48U,
  0xbd980f48bdc8d02bU, 0xbd889cac3cfe41c0U, 0xbd901e8ebc473fd8U, 0x3dc63d58bd992b32U,
  0x3cbdcfc03c801b9cU, 0x3db8ea903dd442a4U, 0xbd6e7a8cbdc09a35U, 0x3d781d20bd892648U,
  0xbcd128f83dc98d44U, 0x3b1d3a603d836ea6U, 0x3cd96e58bcde43a0U, 0x3dad9e8abdca426eU,
  0x3ce88eb83da5b25cU, 0x3d71f4c43d449364U, 0x3d966bb6bc649fb0U, 0xbd982de33d3da610U,
  0xbdbb4b51bdb7d75cU, 0xbda9c314bb9a0430U, 0x3d32f330bdcbbda0U, 0xbc9039903db577f0U,
  0x3c85d2c0bd8f50d6U, 0x3d6f7c68bdd4b6b8U, 0xbd93f9583dbb7e82U, 0xbdc2c8cd3d434ab8U,
  0xbd9330ac3db753b0U, 0x3c0bf770bd8d1fe8U, 0xbd434e1dbc2ea808U, 0x3ca0a858bcb470ecU,
  0x3d834a883bdf5e70U, 0xbd7180573dae5c88U, 0x3d9cedec3d5ef0d4U, 0xbd4e09eb3dd57638U,
  0xbd5e03153dbcc588U, 0x3d8c4a7e3d42c740U, 0x3c875334bdc82283U, 0x3dad0620bdabc103U,
  0xbc998f243d8a720eU, 0xbdaa8e0ebd2133ecU, 0xbc87fd243cc0afb8U, 0xbd142f283d4a17c4U,
  0x3d4aa21cbd8f4888U, 0x3d6dfc80bb891390U, 0xbd0d1196bd9260e0U, 0xbc855ba03db4d3caU,
  0x3dc16bd43d450724U, 0x3d4c3b30bb8a5da0U, 0xbcf8f1643ab41940U, 0xbdb3b373bd124bceU,
  0x3d6007e8bdae318dU, 0xbdc83fd3bd8b32f8U, 0x3ce30808bd6b245bU, 0x3d7bd0a43d74d9f8U,
  0x3c43a868bc6f3f60U, 0xbc8da03cbd90ac86U, 0xbd83f53dbc399b40U, 0xbd8195cabc9eec58U,
  0xbd82dc363c205750U, 0xbda7df343db04192U, 0x3b005b60bb833a30U, 0xbd0a0d923d42a7d4U,
  0xbd9a37c1bdbf250fU, 0xbd942d223d8ecf8cU, 0xbd09db32bdd39745U, 0xbcceb9943d34058cU,
  0x3ca11228bc07dba8U, 0x3c9df90cbd834cc1U, 0x3cb4df88bd8ab146U, 0xbd432e1abd378602U,
  0x3d1d3b6cbc40f0b0U, 0xbdb345e6bd589467U, 0x3d184d50bd8de49eU, 0x3d4b9e8c3c030c58U,
  0x3d955388bd792e78U, 0xbdc9c75e3dd32540U, 0xbd80e2b4bd994e86U, 0x3d700a08bdcf281aU,
  0x3dce7abc3dc97792U, 0xbd844e9b3cb6b3e0U, 0xbd1695fc3c50fcb0U, 0x3da0319c3d8e87e2U,
  0x3da1e45e3bf52fa0U, 0x3db5002a3d292848U, 0x3d6c1900bd3e1cedU, 0x3da16c30bb2c4f20U,
  0x3daee02cbd59c1e3U, 0xbdd0e8633d96af82U, 0x3d3c23103d876378U, 0xbd5638ef3d029290U,
  0x3cecdbe83da5e4f0U, 0x3da4c1fa3c094380U, 0x3ca3b838bca542c4U, 0x3d47b22c3d48c0c8U,
  0x3dc27c5c3d0a50c8U, 0x3d00237c3bc5cb50U, 0x3c1683183daab3f8U, 0xbbfda600b8504800U,
  0x3d579d043d3c2bdcU, 0xbd136a263db52646U, 0x3d3949303d1c7254U, 0xbdaf76d9bd58df22U,
  0xbccda7c4bd1d3584U, 0xbd5b65d73d109f70U, 0xbda1813c3cebcda0U, 0x3d984adebdb85125U,
  0x3d3011043c0f8ad0U, 0xbdcd1334bd17e472U, 0xbd732ad93d047a34U, 0x3d5cec48bd9c29cbU,
  0xbd8e2cb6bc72f948U, 0xbdb8ada8bd861ebeU, 0xbd9b933f3d944caeU, 0x3d99392abd54393aU,
  0x3d315e703d91e730U, 0x3d00777c3d7d352cU, 0xbdd05c893dd00b36U, 0x3a9b60803d904632U,
  0xbdd29bcd3c9b725cU, 0x3b4117a0bdb9d8b4U, 0xbd7c1e6ebb3e28e0U, 0x3cfe8bd03d4b70f0U,
  0xbd06b9acbbe22d00U, 0xbdb9ce423d0aca20U, 0x3dc7fb803c12e6f0U, 0xbd97d9fdbbdd87d0U,
  0xbd88c1b6bcf5718cU, 0xbd1c5c1c3dafce06U, 0x3dd190fabc938b8cU, 0xbd3a7bcbbdc8f694U,
  0xbda0985fbd0afcc6U, 0x3da669483dd356daU, 0x3dd145b03dad8cb6U, 0xbdd22ea7bc2b84d0U,
  0xbb26cc403dbdb21aU, 0xbc88a12cbdcc3ad4U, 0xbc135e183ca956c8U, 0xbd70ae963dac1e9cU,
  0x3c494e40bdac8c1cU, 0x3ceb27d8bd9b915eU, 0x3d608aa0bd1753ecU, 0xbd2d45153dc23c26U,
  0xbb1b76c03d417c7cU, 0x3d9f959e3d1a4448U, 0x3c0e4958bd825925U, 0xbda450e63d0be0b4U,
  0xbc62ccd03d9950e6U, 0xbcd2aee83db1ea00U, 0x3d7bd6783dae0db6U, 0xbd99707fbc9944c4U,
  0xbdb93d5dbd883a1aU, 0xbdaf394e3cc688e0U, 0x3ca3d0083d54e08cU, 0xbdbc548fbd722759U,
  0x3d99b068bdb042b7U, 0xbd8f5e203dbfc008U, 0xbd4488cfbd9adec4U, 0x3db5fafe3d50eb08U,
  0x3b0e35203c22cf68U, 0xbd68e3513ce798f0U, 0xbd92fc62bda840faU, 0x3d5dfe2c3b840ee0U,
  0xbc334c683d374658U, 0x3da87df0bd8408beU, 0xbc9e24543db56c68U, 0xbd9984c2bc87c130U,
  0xbda9cfb4bc1f7240U, 0xbd4d764f3d281fb4U, 0x3dc169103da55f16U, 0x3dcee8e4bd41282dU,
  0xbd3c3de2ba880400U, 0x3d7e947cbd8a0dc6U, 0xbc6433b03dcc8da4U, 0xbda4a4ccbdab0fe9U,
  0xbd5bd010bdce841fU, 0xbd86d9c4bcbe3fa8U, 0x3bbc9410bb1e2820U, 0xbdd0782cbd0a5c66U,
  0x3cb732e0bd67343dU, 0x3d9547423c056200U, 0xbd823bc23d6dbf10U, 0xbd9a94e8bd75621fU,
  0xbd9f34ed3d9e0c60U, 0xbd2faf39bc7ee808U, 0x3d8f9368bd4cb49dU, 0xbdb3772f3d8fdcfeU,
  0xbd6a13053d8fde38U, 0xbcd6872c3cf10070U, 0xbdc02f303d84e31eU, 0xbdb8b06dbd042e16U,
  0xbbc2aaa03cf9d580U, 0x3d40cbf43d01a334U, 0x3cf05388bdc2c620U, 0x3d0f76b03d4ea010U,
  0xbd21eec0bd42f598U, 0x3dbc576c3d936370U, 0x3c964bfcbd8014e1U, 0x3da7d222bdbdd778U,
  0xbd0e1afc3d6b5fd8U, 0xbd1f0a96bda22842U, 0xbba743f03dcf3a7cU, 0x3d6133a43d5427d0U,
  0xbabde580bd3aed83U, 0x3d9a689cbc801c98U, 0x3da3509cbd33e237U, 0x3d340460bcecf5e8U,
  0xbc46d6c83c630a70U, 0x3d9022143dbbc0d2U, 0x3c582b403d2eba9cU, 0x3c89f1ecbd2f9cafU,
  0x3dbfaec6bdd1353cU, 0x3db4c7703d8cd1c4U, 0x3d72a684bc42a3e8U, 0x3da338a03d885c84U,
  0xbdc87894bd89b600U, 0x3d402a243da8f2a4U, 0xbd508a923d19e9e8U, 0x3dc7bdccbdb0940eU,
  0x3d21ce583bfb7130U, 0x3d9345e83d09ab98U, 0xbb6f90203d497280U, 0xbb8646d0bdd0d1fcU,
  0xbd3a3faf3d268ac4U, 0xbd47c8f03d31e5b8U, 0xbdd2ffa7bcd74f30U, 0xbd4abf9c3c96a86cU,
  0x3d629ba03d04a5d4U, 0x3d9b2cf23dc5d55eU, 0xbdb916b43d4cedb0U, 0xbdc8816abda62c9dU,
  0xbd0bec7abdbe298aU, 0xbd80edc33d027490U, 0x3cfa90283cb89c90U, 0x3da192783da9f054U,
  0xbcf2b378bd324e81U, 0x3d4b1c0c3b9fee00U, 0x3c3a0330bd609967U, 0xbd82ffc4b9366400U,
  0xbce779343cabe5d8U, 0x3a4f0d803d9f03bcU, 0x3cf4ec983d299114U, 0x3d4d02903d5e5cb8U,
  0xbd77a9fabc43c1c8U, 0x3d929cfa3d8fe726U, 0xbdc91fd9bdc17cc4U, 0xbc260440bcedd7c4U,
  0x3d576b403da057eaU, 0xbd91a7fb3c087478U, 0xbc284b98bdac013fU, 0x3dbef654bd5236cdU,
  0x3cbd1f703dbac34aU, 0xbcc812c8bdd3c782U, 0x3dce12a4bd52e765U, 0xbd4d03aebc048170U,
  0x3dd14c703c8d7a50U, 0xbd7578a8bd9a8617U, 0xbc90cc743d4c5f64U, 0xbd6261143d3cc5d8U,
  0x3db877ac3d893de6U, 0xbd87c7263ca613c4U, 0xbba41e40bdbfa990U, 0xbd2635a2bcb3839cU,
  0x3d84cc60bc8fe6c8U, 0x3c4ca208bba54390U, 0xbd281c263d0a83f4U, 0xbcb761683d8480aaU,
  0x3d2896ec3d86fd98U, 0x3b8be510bd8047daU, 0x3d883cde3d28c8b0U, 0x3cec8a383d293d48U,
  0xbc0fe0903dc30756U, 0x3c9e98383d8333c8U, 0x3d5b803cbd9d952dU, 0x3d0fd84cbdc9813bU,
  0x3ccc02c83db85c80U, 0x3dcf9e60bd6bb898U, 0x3d86f7fabbd81000U, 0xbce2a3ecbb89d600U,
  0x3c2e7758bb1b2c00U, 0x3dcffc0ebcf17c78U, 0xbdd2cfb2bd9be942U, 0xbd8f65acbce2f0a4U,
  0xbc290c98bd454f3cU, 0xbd12b3223d6833e4U, 0x3d0d24e8bdbd6480U, 0x3ce6b1e0bd4b3b89U,
  0x3d9d3b24bdbb5c8aU, 0x3c98ded4bd9973b2U, 0x3d18ac143d2c29ccU, 0x3dc1ca4abd307519U,
  0xbc743e203d5c8448U, 0x3d64eb783bad7010U, 0xbcbed9b83d0926ccU, 0x3caae5f8bc93b98cU,
  0x3dd3fd7e3d928bacU, 0xbcae84fcbd30058dU, 0x3c9bd8e03dcbff98U, 0xbdb4c5fc3c94d218U,
  0x3db225883d97019eU, 0xbc9385c03cdd1168U, 0x3da0b97ebd81db2eU, 0x3cdcc2d8bda4f230U,
  0x3cb7a350bcbf585cU, 0x3da4142cbc0bfee0U, 0xbd9909b2bca5d1c0U, 0xbcea8578bc360ec8U,
  0x3d811a48bc2af7a0U, 0xbdcce5c53c897e8cU, 0xbd811c5f3d9af484U, 0xbb8ee8103d872d0aU,
  0xbc9aa0d83d574e58U, 0x3da435fe3cd45270U, 0xbccf8c9c3d616700U, 0xbcc5c10cbdd2bf6aU,
  0x3cf621583d74ede0U, 0x3dd1c71e3dbb482eU, 0xbdb8eb9fbce5dd1cU, 0x3d95ae8a3d95b240U,
  0x3d6926883d22aa70U, 0x3d5b523cbcbd0140U, 0x3d95efd83cfb6a58U, 0x3dc7ac0c3da138d0U,
  0x3da6cdb63b23a9c0U, 0x3d7884883bed5fe0U, 0x3d7e2090bdbacab8U, 0xbd380f62bcbf35acU,
  0x3cf818a0bdce3722U, 0x3dd31662bd9e72eeU, 0xbd00b98ebd912cdaU, 0xbcf48f94bb9a48e0U,
  0x3d3eac10bc2d6398U, 0xbdb76b103caae470U, 0xbdb34559bdc86884U, 0xbca608643d33f8f0U,
  0xbd2937823d1f8674U, 0x3d2a03443cd21718U, 0x3c48cc38bdbe0cb2U, 0xbdbcd2463c959f7cU,
  0xbd9c5d063d073724U, 0xbd7d423a3da7c54aU, 0xbd999c323cabad40U, 0xbd7c5a0bbdc105daU,
  0x3cba9ff8bd4a0414U, 0x3c2e3498bd4b0e5dU, 0x3da74ea0bd576538U, 0xbcb9c294bda908f4U,
  0xbcdff6f83d43a794U, 0xbd986121bcb084c4U, 0x3dcae0943d795770U, 0x3d899008bc313648U,
  0xbd14b31a3c8b8a34U, 0xbda30a8e3c3b2178U, 0x3d98b3cabc43aa68U, 0xbd4f8afdbdc64020U,
  0x3dcfd442bc2f3418U, 0xbcaee140bd934f36U, 0xbc96ab4cbd9fa19aU, 0xbca8df70bdcc259dU,
  0xbdbd63d83da68272U, 0xbcbd75f83b46f520U, 0xbad9e5403dc9cb10U, 0xbdb027673dab89f8U,
  0x3cb7d7c0bdd41e47U, 0x3d3a34683dd5a116U, 0xbccf9c983db49ae6U, 0x3d81c4cabd5cb321U,
  0xbda8f501bcb738fcU, 0x3c0d3740bd18db9eU, 0x3d9e567e3d07fa68U, 0xbbfcbce0bd39e68aU,
  0x3d4df5a03d0688bcU, 0xbd8a92803d805da6U, 0xbd6cc302bdb619fcU, 0xbd7b34e33c8d78b4U,
  0xbdce0a0abd6b3ecfU, 0xbd9d6750bd995623U, 0xbb3d07003d015c5cU, 0x3d46a620bafaf640U,
  0x3d4b44a03dc147bcU, 0x3dbd840ebc107ff8U, 0xbd1c5c383d8529e4U, 0x3d017a18bc797b00U,
  0x3d15501cbc808898U, 0xbcd789a03da46f52U, 0xbdc38d65bd13376aU, 0xbdb371babd2b27ecU,
  0x3c626fd8bc802a04U, 0x3db19fda3b895230U, 0xbdba27df3be91150U, 0xbdb06b8e39b3a900U,
  0xbc1441303da5597aU, 0x3d04906cbd044a56U, 0xbd8cf7503dd0c23aU, 0x3d1cc158bc9a12b0U,
  0x3da9b124bdd297efU, 0xbdb56b103dc66f6aU, 0xbdb37d0f3dd49c4cU, 0x3dad6a90bd32dd70U,
  0x3cbf25a8bd34d724U, 0x3da94738bcb085b4U, 0x3c92bb88bd2a9f68U, 0xbdc46840bd915b9eU,
  0x3d1f4cbcbd868c73U, 0x3d297c9cbc366180U, 0x0U, 0x0U,
  0x0U, 0x0U, 0x0U, 0x0U,
  0x0U, 0x0U, 0xbcb6801cbcfa4c5cU, 0xbd8876543d754516U,
  0xbcbe531cbb913f20U, 0x3d6a035ebda61202U, 0xbd981586bd5819ebU, 0x3c3b78a03d851d43U,
  0x3d1a3456bd6ab9fbU, 0x3da02ddf3c40d518U, 0xbcab3c60bd7db076U, 0xbdba3723bd898e34U,
  0xbd0ee1eebd5a0aa4U, 0xbd0da3403c898da0U, 0x3d1ab1febc898d08U, 0x3d6fccd23d82b485U,
  0x3c8c47e43cc1d41cU, 0xbd91d0c4bcb2e0d4U, 0x3dd7e325bc302be0U, 0x3d9f7ec5bdd123a6U,
  0x3d99ca573d1c9bd2U, 0xbd81fbf0bdd82f14U, 0xbd5c7aaebd113694U, 0xbc41e1383d82a85bU,
  0x3da66d0b3d9bc4ddU, 0x3dc8df87bc96d5c0U, 0xbc3621f8bd1e53a4U, 0x3dbb0d0fbdb2e75eU,
  0x3c525f083d83c14fU, 0x3c9e988cbcac5934U, 0xbba044e03d358982U, 0xbda8ab0b3dcc4383U,
  0x3dda3f193d071306U, 0xbd430acebc2e5978U, 0x3dad5f0bbc84ff04U, 0x3d98a0b93c3cfc80U,
  0xbd209df23d1ab4c2U, 0x3c77f2783dc39083U, 0xbd7e5823bd2f8d68U, 0xbd895716bd7dd73dU,
  0x3d5bfd82bd710c31U, 0xbdbca3e0b9e2c500U, 0xbd28cf143c9556b4U, 0xbd5bd2553b455120U,
  0xbc7c9a08bd831b10U, 0xbd57c4323cf1ae4cU, 0xbd7595523da60427U, 0x3dc8af533c0f6d40U,
  0xbdbd24e2bd401c8dU, 0xbdd018bf3d5f5276U, 0xbdb215a63d612d66U, 0xbd367b763d2271aaU,
  0x3db8707fbbda5350U, 0x3d2aabe23ccd21c4U, 0xbc7979c8bd6b098cU, 0x3dd2dc13bdcb9d24U,
  0xbdacec333c5a90c8U, 0x3d53e58a3c889c88U, 0x3da84581bd1bf5f0U, 0xbccd85d0bd2ffbe4U,
  0xbd0f1502bcb6e308U, 0xbd75f61abd82c487U, 0x3cef7d94bd5c0d09U, 0x3d11538ebcc1b01cU,
  0x3dbc5d8fbdae7bbaU, 0x3d4a7502bd378becU, 0x3dc045c53d810a55U, 0xbc9ca33cbd3e7335U,
  0x3d0668dabdd30767U, 0x3db8a9a1bdba509fU, 0x3d98759f3d83f23fU, 0xbdc1e0713d12a45eU,
  0xbce095d8bdcc8722U, 0x3d80e9f93cb5ad24U, 0xbdc9876c3dd3005dU, 0xbd77b065bcca3b4cU,
  0x3d86b8553cae95a4U, 0x3d2b2262bd8fbfd4U, 0xbb8816303db82067U, 0x3d7f68163d37b542U,
  0x3da8cd63bc074658U, 0x3c914564bd200f22U, 0xbd3e06873d0d4182U, 0xbdc6b1eabd1f8196U,
  0x3b1e98403c86435cU, 0x3d86de053dac1541U, 0xbbd5f1103dc8dbddU, 0xbca89324bc9fba40U,
  0xba2e36003d2b2dceU, 0xbbeb57c0bdd2dc08U, 0x3cf8c42c3c66bad0U, 0xbd1020e8bcc416d0U,
  0x3dacb58dbc963d54U, 0x3d53f1563dbd1bedU, 0xbcd16080bd660bbdU, 0xbd862cf8bd827d9bU,
  0x3cd7cef4bd8211f6U, 0xbb19ad603d8f8573U, 0x3c477e083dd87255U, 0xbd95a4b83c04a738U,
  0x3cb1edf4bd7395e8U, 0x3b98ae90bd021facU, 0x3d8efdf1bda497a2U, 0xbd1d936a3dd36ee7U,
  0xbd162fa23d1cdcc2U, 0xbda34d0e3dbc8115U, 0x3d1806f6bdc83022U, 0x3dbb2485bd897e32U,
  0xbbcfced03da6200bU, 0x3d1f3a963dadc0abU, 0xbda864183dd2107bU, 0xbdb6a3613daf5485U,
  0x3d37239a3da49ed7U, 0x3d320c5abd5b0f7aU, 0x3d44cbe63ba79110U, 0xbd453d153d1992a6U,
  0x3b02e120bd66d163U, 0xbd3ee609bdc5a09eU, 0x3c27a8983d212db2U, 0x3da3bc6f3c019c00U,
  0xbdc40ebbbd27926aU, 0xbc91a8043d7ec9caU, 0xbd02c5bcbd927c6aU, 0xbd7065fe3c233c50U,
  0xbda751b93d9bbb87U, 0x3d9ddf253bf57f40U, 0x3da772f7bd83ff46U, 0x3d4a17a23d29b5a6U,
  0x3d8312a1bc338d38U, 0x3dc87dd3bd6b99a6U, 0xbc9e2c1cbda07cf8U, 0xbbde93e0bd920136U,
  0x3d665aa23daccc83U, 0xbd3c42adbd2a14d2U, 0xbd88160a3ddb2d1dU, 0xbd8886c0bcaf5958U,
  0x3dbccf6fbdcd2a81U, 0x3dd2f10f3da61dd3U, 0xbd51b865bd0c29deU, 0x3d25f906bc83c4b8U,
  0xbd9b3470bdab120cU, 0x3d9792913dca289bU, 0x3dd90295bdb1c394U, 0xbd93ed243d0a2e4aU,
  0xbd51cc00bdb2c928U, 0xbd4749093d0cdc9eU, 0x3c0efc40bc8cb970U, 0xbdd4581e3d827d37U,
  0x3ce59f6cbdbf5623U, 0x3db281433d24b9feU, 0x3d50b20ebdc8be80U, 0x3d0889923c79a390U,
  0x3c7fa318bda02cc8U, 0x3cf029cc3db0ca47U, 0x3d18d70e3dd2819dU, 0xbddb7e173c9bebd4U,
  0xbcc8157c3dbc7a0dU, 0x3d7349dabc4eb0a8U, 0xbd4baa3bbc632088U, 0x3db7773bbd09ae6aU,
  0xbcc8d158bd62d5ebU, 0x3d612792bd9d7a55U, 0x3d90bf3dbd1d255eU, 0x3dd695b53dbe9557U,
  0xbdb8644abdb0c062U, 0x3d50623ebc614b70U, 0x3da23c3b3da417d5U, 0x3bf39dd0bd67cda1U,
  0xbd9d3eadbd8cf0bcU, 0x3d9eede7bdc5f0f7U, 0xbdc9b6ffbd8f4d6eU, 0xbc013ff0bca602fcU,
  0xbd813f20bd8660f9U, 0xbd953954bdd64d7cU, 0x3c674c203dbc49ffU, 0x3d2e3712bddacf29U,
  0x3daad7bbbdd12f88U, 0x3da6a93d3cc4c63cU, 0x3d78be62bd4dbbc5U, 0x3d51adb6bd8a6317U,
  0x3dc350e13d87a937U, 0x3d99a2e7bda441acU, 0xbd43e4ebbd310a64U, 0xbcdf5c30bd0748b0U,
  0x3dbc48ef3d925933U, 0xbcdaf244bc863524U, 0x3d08a3b2ba1f9680U, 0x3bd2d3603cfc0964U,
  0xbc98748cbc446488U, 0xbd8658babda795aaU, 0x3c9943ec3dd278d9U, 0xbbb6c8b0bd38c187U,
  0x3cf11bacbc9c0348U, 0x3d15963e3d566b02U, 0xbdbb92783dd1a085U, 0xbd86186abdb20426U,
  0x3d52b162bd5c0c48U, 0x3d0238163d0757baU, 0x3dcaf7e5bdad3a22U, 0x3d90af613cc6f5c4U,
  0x3c982aecbcc5a598U, 0xbc3e48d8bdd8d612U, 0x3d5d867abdc8b30fU, 0x3d6ffcf63da3a7bbU,
  0x3d8ad60d3ceb9964U, 0xbcc96b8c3d9e6619U, 0xbd9aca533dccbc1fU, 0x3d012cf6bdb3caa9U,
  0xbda144863dc0a3fbU, 0x3c8ed56cbc943124U, 0x3d6dc84e3d851bcfU, 0x3d14c0763d66d66aU,
  0xbd8d67f8bd47e9deU, 0x3cbcd54c3db00059U, 0xbd439c093d01063eU, 0x3d7801a23b8481f0U,
  0x3d5a996e3dd8162fU, 0xbddaf7743d1bb562U, 0x3d8e94e7bd88c960U, 0xbdafa78ebd0dd4c6U,
  0xbb48aba0bd51c0d4U, 0x3afa0380bd96bdc0U, 0x3caeabc4bdc2d6c3U, 0xbc9b26dcbd57f474U,
  0x3d1743463d57d53aU, 0xbd8af726bd8df544U, 0x3d5aa5ea3d91a0bdU, 0xbda96affbd2d829cU,
  0xbbe0d640bdc2344fU, 0x3d814c4f37cc5000U, 0xbd3fb1303cbed294U, 0x3c14d550bd58dda8U,
  0xbd6f846abdd5a353U, 0xbd98383c3cdc5bfcU, 0xbd7a61423d648efaU, 0xbd17f180bb81bbb0U,
  0xbd7d6a1abc466508U, 0xbd954dc43cb0aeacU, 0x3b6f42a03dc070b3U, 0xbd52e4f33b216cc0U,
  0xbc4cc890bd88fce4U, 0x3cbe5c9cbdcfde86U, 0xbd7ce6cf3cef057cU, 0xbdb506debb670d20U,
  0x3db6bb2b3c9f50c4U, 0xbcfd2584bd9b8277U, 0xbd23914ebb1230a0U, 0x3dbff555bc9966e0U,
  0xbd9e5e4c3cf9a674U, 0xbd5c8d213d8d91b3U, 0xbdc7657d3dc0940dU, 0xbb80e3c0bd928736U,
  0xbcba6d6c3b352ae0U, 0x3d26387abd50041fU, 0x3b8db0e0bd316e0cU, 0xbdcab48e3dd6202bU,
  0xbcfa8de43cc2b1fcU, 0xbcc2db983c8de944U, 0x3da322c93c160698U, 0xbca3fff83b44dfc0U,
  0xbc254b303bffc6f0U, 0xbd23d21abcb92f94U, 0x3ddba8773c1b4f18U, 0xbdb145483d8dab89U,
  0xbd92fc2dbdc55c5aU, 0x3cbadd143d8b3f1fU, 0x3d72310a3d11b206U, 0xbd19008a3d2cae6aU,
  0x3c215fb03d9559e1U, 0x3dc1ea67bc7a2680U, 0xbda25ea1bd214eacU, 0xbd59ecdcbd48a7eaU,
  0xbdb090a2bcfc9cb8U, 0xbcf4cb603db05b7dU, 0xbd8edb8abd0444a6U, 0xbd02eed2bd33e6caU,
  0x3dca9d013d8e1845U, 0x3dbfa8753d068462U, 0x3d9d07573ccb1e2cU, 0xbd0c8bb23d82c407U,
  0x3d027fce3dc9cd5bU, 0xbc93121cbd858efcU, 0x3bebae503dbf1145U, 0xbd6f7efebd0cca74U,
  0xbd9ee8773d19495eU, 0x3dc4e9b3bc5aaf30U, 0xbda4a4223d51389aU, 0xbdbc7dd63d4a97f2U,
  0xbd3f4eb6bdbd9106U, 0x3c404fe83c073e30U, 0x3d9838d3bd2fe494U, 0x3db9071f3d85d489U,
  0xbd2ec2fcbccfeba8U, 0x3c8f8ec4bd755085U, 0x3d9a2427bc879a84U, 0xbdbce30dbc7d2730U,
  0x3d2eaf9e3d464206U, 0x3daa61213ddbf2e5U, 0x3d3f080a3dc40763U, 0xbb9d30a03c2765e0U,
  0xbd6531fa3dd52209U, 0x3dd8e255bc5b9578U, 0x3c42ead8bd75ca40U, 0xbd4d10f3bd808272U,
  0xbca0bcc0bd2726eaU, 0xbc0a3610bd444a21U, 0xbd4cd36dbb8b9ba0U, 0x3d9a961bbdd5e0edU,
  0xbdc6d590bd2247a4U, 0xbcc177e43d3e6f06U, 0xbd97af2e3d6d3baaU, 0xbd4c736c3d9bfc1dU,
  0xbc97adb8bdcbe8dbU, 0x3ce6f8acbb17ba20U, 0x3d148b5ebdcd8949U, 0x3cdb25dc3cae74c4U,
  0x3c98c0fc3dacd4a9U, 0x3d2bda4abd8b637eU, 0x3bd222903dd38771U, 0xbd4834e6b9c78000U,
  0xbd3ca16bbd9cfb01U, 0xbcdb8b7cbdd3fd0eU, 0x3c371bb0bd105df2U, 0x3d1691ba3da6041dU,
  0xbd7dcbeebda0894cU, 0xbd815a46bd7afec3U, 0xbd63e699bd1a5914U, 0xbd023fbc3d4c171aU,
  0xbc9837dcbd42745eU, 0x3dc5b8e5bd6ddc2cU, 0x3b7a67a03c8466d0U, 0x3d1892863d56c22eU,
  0xbc2ce320bdcad4eaU, 0xbdd372943cf95914U, 0xbb51a6603d18a1ceU, 0xbdc1c0c83ca15884U,
  0x3d994917bd4d703bU, 0xbd0be96a3ccf053cU, 0x3cc237e4bda025f0U, 0x3dc7ed81bdbf6ed4U,
  0xbda1175ebce05058U, 0xbdd17bbfbba6c5a0U, 0xbd3d43f7bbc98960U, 0xbd899f94bd6741c6U,
  0xbdb360fa3d45e116U, 0xbdbaad6b3d2b044eU, 0xbd355b12bbe0a8b0U, 0xbc0ef7a0bda40a0bU,
  0x3c71ea20bd4124d3U, 0x3d0e1b06bc85ccb8U, 0xbc9c12283db8d023U, 0xbdc3ddde3c35f940U,
  0x3bd7d3903d7001e6U, 0x3dadf3d13d5647c6U, 0xbb046b20bbea7850U, 0x3d9428b7bdd94233U,
  0xbcc090683cd327e4U, 0xbd018f32bdcac364U, 0xbc8bac083d5b5522U, 0x3db37a05bda11565U,
  0x3d5df786bd439b3bU, 0xbcdd176cbab18700U, 0xbcec6ec43b6a76a0U, 0xbdb6e9633dcd155bU,
  0x3baebcd0bdb1b5d8U, 0xbdc2a9803c64b9e0U, 0x3da36c653dbb4777U, 0xbc500cb03d61871eU,
  0xbd779ecebd74487dU, 0xbd52e2663d171686U, 0x3d3b2ae23d9c6d9dU, 0xbd9e7301bdaf3826U,
  0x3dc49d013d79833aU, 0xbd9bdd8a3dadc599U, 0x3bb162003ddad757U, 0x3dd6824fbd63ddbcU,
  0xbc860548bbe59890U, 0xbce46c483d491fbeU, 0xbd4c7441bd0c6a1aU, 0x3bbbf1403d49f452U,
  0x3d02e18e3d4dbd6aU, 0x3d737c2e3db806ebU, 0xbcbc908cbd962f46U, 0x3dd28823bd916212U,
  0xbdcca32fbdce206cU, 0xbdb982dabd4a1a81U, 0xbc3ab3b8bd84d05cU, 0x3d91e68f3d230656U,
  0x3d91b9f73cb33394U, 0x3cf8167cbc9b8264U, 0x3d5065debdb56a5aU, 0x3d679f323bfa6950U,
  0xbd0ded9c39e3c400U, 0xbd4f1bb23d567dd6U, 0xbd6b7981bc16b370U, 0xbce1ab243d5db73eU,
  0xbd2909403d849083U, 0x3ccd3894bdb68f4aU, 0x3d997ac1bc9b71e4U, 0xbda14fdcbda644c7U,
  0xb9cf05003b4dff00U, 0xbd1ace24bd770ac1U, 0xbdbe4413bcf1b718U, 0x3d906d473d890ee3U,
  0x3ca29d8c3d8ccea9U, 0xbd0d9dd4bdce5065U, 0x3d68ba2a3b8b52d0U, 0xbd542ecdbd6e531cU,
  0x3d8272b73d16735eU, 0xbc6beab0bdc186deU, 0x3db4a08dbce92f24U, 0x3d094a3abdbe9f08U,
  0xbdb6c3d2bd96e702U, 0x3ca397743c039ba0U, 0xbb61ab20bc65b7f0U, 0x3da193553cd7680cU,
  0xbd83cb86bd93b466U, 0xbd824b6a3d8f5d31U, 0xbd63d75f3db59de5U, 0xbd8022dc3dcf3ffdU,
  0xbda21448bcc880a0U, 0x3d8269bf3b315900U, 0x3db47e9dbdd25200U, 0xbdc309403d72ddeeU,
  0xbd0512bc3d479606U, 0xbdad2d9e3dcd6489U, 0xbd377e4ebd48c461U, 0xbdc75d983ddbd41bU,
  0x3dd30e99bcca5df0U, 0xbc11da00bd1a961eU, 0x3c1f27e83d2b2f2aU, 0x3d1ad352bdd04541U,
  0xbd4fc2843d9782abU, 0x3d9a0a653c840d48U, 0x3da584bb3dbe50c7U, 0x3d533a2e3d1546a6U,
  0xbdce4aad3bb33a70U, 0xbccd83b8bd997716U, 0x3d7994a2bdac3b48U, 0xbda38c4c3cd1dce4U,
  0xbda8b5d6bc8c3768U, 0x3d3c9a6abdc82043U, 0xbda338123c19ff30U, 0xbdb815803dc05993U,
  0xbd2279063dbf7445U, 0xbd9d592e3db3c1ddU, 0xbdbad7dcbc7f2550U, 0xbdceda6a3d9ca1e3U,
  0xbd1ce7d8bdc3844cU, 0x3d824297bd67e6e0U, 0xbd6a5d9abdbfd1deU, 0xbcd723143d65adb2U,
  0x3d336e66bdd5258dU, 0xbd128b94bd7280c5U, 0x3d1a771a3dcf3925U, 0x3dd8a9173d9a0a95U,
  0xbdda92fe3dc35935U, 0x3d2f57b2bd9334daU, 0xbdbb70533da9781dU, 0xbd90ea5abd3a5f1cU,
  0xbdd80de63d020256U, 0x3db7d291bd8846e0U, 0xbb3d39403da08499U, 0x3dd7c3cfbd160a1eU,
  0xbd4f04853d0c414aU, 0xbdb1075fbd9cf892U, 0xbb848bd03cd39844U, 0x3d970c653dd29d7dU,
  0xbdc4bb67bd4d752cU, 0xbd79a593bd6ab76eU, 0x3cd9014c3d928a3fU, 0x3cdab60cbd0cf672U,
  0x3dc2003dbdafce4aU, 0x3d806ea5bcf6b31cU, 0xbc607350bbdc9990U, 0xbd30026a3d12ab4aU,
  0x3c029c18bca67d38U, 0x3d813493bd848d90U, 0x3d97ca59bcd19944U, 0xbd7404fabdd00fe2U,
  0x3d98fff3bdd34ae0U, 0xbdb6e12c3b55c920U, 0xbd6a2ac4bd2e7d0eU, 0xbdb4b73f3d87b4ebU,
  0xbcbcbf8c3bfa9860U, 0x3d69d05ebcb84bccU, 0xbc640b583c83a5f0U, 0x3d293416bdaa49b6U,
  0x3d52d2dabd80abceU, 0x3da47bf93dc3f8d5U, 0x3d9a6c2d3cd69144U, 0xbbde75d03d58a406U,
  0x3dd4c4ebbcb39220U, 0x3dcfe26fbd04a41eU, 0x3dc40f15bdccbb95U, 0x3daa0a45bd11643cU,
  0x3d4516563d02fae2U, 0xbd6345413d70c70aU, 0x3dd749233c734230U, 0x3d0dd0823d3dac6eU,
  0x3d4316fa3d8df029U, 0xbd8d3d4cbda7b4deU, 0xbd3dbf263cd055d4U, 0xbd90e0233d47892aU,
  0x3cf2105c3d6b5c66U, 0x3dd1c14fbd24d89cU, 0x3d9af0b93d5cfca2U, 0xbd4ab66cbdd59a5eU,
  0xbca9d5483d71522eU, 0x3bc488f0bd47f948U, 0xbc671a503d6f7b6aU, 0x3d44dc52bdc94967U,
  0x3dd14847bc5e2198U, 0x3dcc433fbdd41022U, 0xbd7f2bcebb4ff840U, 0xb808a000bca384d0U,
  0x3d865f893cc0b03cU, 0x3cebe8fc3d61ef76U, 0xbdce3e483dd21d79U, 0xbd46ad5dbdd570eeU,
  0x3ca2261c3dae89bfU, 0x3dc567ffbd4ef953U, 0xbddb04caba24c580U, 0x39414c003dbfcd1bU,
  0xbd6c7f93bda3b321U, 0x3dcd2c8f3d9a8825U, 0x3dd6bee53d524af6U, 0xbd8755df3cae2174U,
  0xbc5127f03d8214c3U, 0x3d0852863dae405dU, 0x3dc6ed013d33629eU, 0xbd8ff2fcbd9354c5U,
  0x3d6b9af63db4982dU, 0x3da124ad3c489470U, 0x3d8991e53dd8941bU, 0xbdb06a46bd101926U,
  0xbdbef5d33d4672a2U, 0xbd630fca3c6be3f0U, 0xbd5584b6bdd967b4U, 0xbd7c7787bd801dd0U,
  0xbd920c7d3dd4a8c5U, 0xbcaab0e83d994519U, 0x3d99776fbc21a078U, 0xbc3f62d03dc33f33U,
  0x3bd44fa0bccb6e30U, 0xbce75e143d9ebc21U, 0xbd370f96bd82a98eU, 0x3d8b38f53d2e366eU,
  0x3d1821c23ccae244U, 0x3dc0864dbd38be39U, 0x3d00a4f2bdb100e6U, 0x3c95097c3c807078U,
  0x3da728573dc89d9dU, 0xbc4d3cc83d102332U, 0xbd3af1de3d2acabeU, 0x3da6cb353dd5b50dU,
  0xbddb789c3d378ba2U, 0xbd14ec2c3dc0c331U, 0x3c7fb4d03d571b7eU, 0x3d9d553bbd65430fU,
  0xbc4b7a483b7d90a0U, 0x3ad00700bdbc4492U, 0x3d9b7d253da3896fU, 0xbdd0adde3d19d576U,
  0x3dbe563fbda37779U, 0x3da04e97bdcf0f3cU, 0xbd2d1210bd854791U, 0x3db1a4dbbdd24606U,
  0xbd185e42bcfc792cU, 0xbdbc27ff3d9a6f93U, 0x3d9e8b51bdbb3a0aU, 0x3b4fb0203dbf14bfU,
  0x3d222ebebdc300b9U, 0x3da935c53da36d71U, 0xbd0f1086bda652f1U, 0x3b923df0bd44e159U,
  0xbd54166bbb9c9a40U, 0x3c2564f8bd950107U, 0xbb915e80bc93a0a8U, 0x3d8b52593da95e03U,
  0x3d76d53ebd2b5dcaU, 0xbd9f5cda3ccbd93cU, 0x3d85aa333d9a2405U, 0xbd9df49abb0c8c80U,
  0xbbf741f0bd2f0fcaU, 0xbd26f55e3d98520bU, 0xbd68d3f13d1f5b22U, 0x3d2cbe76bdba1750U,
  0xbda1a4543c9a6f64U, 0x3cb1759cbd795797U, 0x3dd1e89dbd95740fU, 0x3d5f0e3e3ca038e4U,
  0xbd8752b0bdbd564bU, 0xbdb4024d3d8c72afU, 0x3ccb77a4bd1fbcdaU, 0xbdb997c53b070360U,
  0x3af6d5c03c1c66d0U, 0xbdb506b9bc5812a0U, 0x3cd2815c3da64579U, 0xbcce26d83dda8b23U,
  0x3c5ade00bdd6d5bbU, 0x3d192d0abcba9228U, 0x3db23e693d5ca5d6U, 0x3dda990dbd1413f2U,
  0x3c84d97cbc8f6d34U, 0xbd41edc63d826f6dU, 0x3cef244cbd88d994U, 0x3dadff97bca27adcU,
  0x3b54cdc03dc1836fU, 0x3dc32773bdb78c3fU, 0x3daddbb7bace74c0U, 0xbd85a55e3d0f8a32U,
  0xbcf36b0cbd3c7f27U, 0xbc4643d0bdd06c9cU, 0x3bcb20b0bd5e60beU, 0x3a3c9400bd2f8598U,
  0xbd3b3c94bda6fdafU, 0xbd1f7428bc936ee0U, 0xbd384085bda28288U, 0xbd8026f4bdcbc395U,
  0xbc24dee83c0c1970U, 0x3d6cc692bdc485e5U, 0x3cf7956c3d4b785eU, 0x3c827e1c3dbf7017U,
  0xbd0431c63d8aa5cbU, 0x3daf89a33bbcafa0U, 0xbdc4c42cbdc88236U, 0xbcf990a8bc7aa480U,
  0x3da39addba9d9080U, 0x3d9d76f73d12765eU, 0xbd9aba25ba7f6280U, 0xbd9118883d8b29cfU,
  0xbd97aa6abbb66870U, 0xbdccf62a3d4c78beU, 0x3da3644dbd92954cU, 0xbd598d6bbd8de0deU,
  0x3d2e8f4abcd726f0U, 0xbdd61541bd558f9dU, 0x3d9e9f233d9418d5U, 0x3d13dfaabdb3b1feU,
  0xbdda7e133da73f01U, 0xbd9590263d51bb6eU, 0x3d8bb9073dc9ca5fU, 0x3da6a113bd26fc6eU,
  0xbd9cd66a3d7b43b2U, 0x3c067b20bd2cf168U, 0xbd535e103dab05efU, 0x3da00f27bbccd310U,
  0x3d3749eabda853e0U, 0x3dbbca3fbd0c5bbcU, 0x3cf9d5943d73f84eU, 0x3d3545f63bb60450U,
  0xbd062860bdc534b1U, 0xbb825cd0bd2bda12U, 0x3c195c083d94104bU, 0x3d8103073da2563dU,
  0xbdaed68f3ca3998cU, 0x3d403942bd4fb2baU, 0xbcc338bc3db8c395U, 0x3cef4cccbd4370aaU,
  0x3d76c216bd3d79bbU, 0x3d0554da3c905b9cU, 0x3d7621bebd8c93a6U, 0xbd18d50abd0e1094U,
  0xbdcce6403db924ddU, 0xbd1c6124bdac074eU, 0xbca1583cbc68dfb8U, 0x3dc2482bbd0a75f8U,
  0x3da95b49bcdcb6ecU, 0xbda908d13c5e6bb8U, 0xbc2fd6983d8d8b75U, 0xbd377428bdb5febcU,
  0xbbdf5390bd2d6e72U, 0x3dc592efbd2b967aU, 0xbcb77928bd10ea3cU, 0xbdad2accbc22dd78U,
  0xbcdab884bdc6a38fU, 0x3da6801d3d8fd071U, 0x3ced9b443da01fb5U, 0x3d1088f23d820d57U,
  0xbd52009b3b30bbc0U, 0x3d864da33d8132ddU, 0x3da2dbb7bdd22d33U, 0xbd6f9f1cbb3dbb80U,
  0x3cd20dc43da1c241U, 0xbd9e96433b0f2f00U, 0xbc9b6d7cbd10709cU, 0x3d1fbea63cdaf0dcU,
  0xbd8bb049bcb88538U, 0x3d8cc49dbda795c9U, 0xbd623200bdbb07f5U, 0x3dd2ceb73da7d209U,
  0xbd810d0bbd7f25ecU, 0x3d8bec93bd96c899U, 0xbd813968bd2dbf08U, 0xbbf349303d92837fU,
  0x3dbdef573d6aaf9eU, 0x3c205930bdcf9ee1U, 0x3c532328bd56b48aU, 0xbc582fa0bd23f934U,
  0x3d2ce67a3da3d071U, 0x3d16e82ebd3037c6U, 0x3db92b5f3d7ac6aaU, 0xbda5595c3cc98b2cU,
  0xbbe70ce0bd925f03U, 0x3d0d586a3d63a322U, 0x3d4f4c7ebab50200U, 0xbc98d968bdae697eU,
  0xbd636075bd2ae688U, 0xbd99b2323cb4c9ccU, 0x3d8c22a9bcca8e54U, 0x3cda5d44bd4c082bU,
  0x3d9d8f093db9343dU, 0xbd96cbfebd153c4eU, 0xbb6c4c40bd36e1aaU, 0x3d94647bbdc4c5b4U,
  0xbdcfdc1cbd58201fU, 0xbd6a14e13cbfcc1cU, 0x3d70243abd8d6553U, 0x3b9f70003d1eea12U,
  0xbd11cf62bdb69589U, 0x3b8f20b0bd17ebbaU, 0x3d7230aa3d3f1596U, 0xbdd9e6f03cd55494U,
  0x3db6dedfbd67e037U, 0x3c9fa5f43dbe7c19U, 0x3d9a9cad3cc8475cU, 0xbd5fe296bd543bc5U,
  0xbcd344e83d423c76U, 0xbbfce0103d2c07f2U, 0x3dd63bedbd86652dU, 0x3cc6a5e4bd1b27e2U,
  0xbd79df6b3dac5637U, 0xbcbf90e8bdac6051U, 0xbd019ee63dab8711U, 0xbd1840503d8f1b37U,
  0x3d88b3d93dbdf493U, 0xbd9a8c743dafe87fU, 0xbc2142e8bdaa4f9fU, 0x3c4e3e28bd63327cU,
  0x3ddaede1bdb932d3U, 0xbbc7c9e0bb0a4860U, 0xbd4855a93c566338U, 0xbca57654bc325d58U,
  0xbc767f50bd545428U, 0xba84b1c0bdc6a978U, 0x3db6c24dbc691758U, 0x3b3df060bb063f80U,
  0xbd938295bd9b9ab7U, 0x3cee20e43da2691bU, 0xbd82b51dbdbee666U, 0x3da8f7d1bd951006U,
  0xbca29cc03d3fb46aU, 0xbd9b9fec3cae5fdcU, 0xbd5fd627bba2dac0U, 0xbdac59cabdb1b49cU,
  0x3da470c93baaf530U, 0xbd341f0cbd9a2880U, 0x3c898850bc3c3528U, 0xbd3472febc6280e8U,
  0xbd69bdb6bd6cd0f2U, 0x3d9decdd3dc96ff3U, 0x3dd836353d40afa2U, 0x3db936273dccfc05U,
  0xbd0baddabd949a3aU, 0xbd51dd14bd27c8ccU, 0xbdd91d7a3cfe6cecU, 0xbd560fc33dc7f1b9U,
  0xbdb1845d3cec2f1cU, 0xbd2e7898bd957272U, 0x3d9d217f3dbba251U, 0xbb3eea003dac7cc1U,
  0xbdb202a9bc9952f4U, 0x3db312fdbd91a33fU, 0xbdbec4ab3c7a7428U, 0xbd520af23cfd646cU,
  0x3dc496513dc78499U, 0xbc5ecfa0bdc4121dU, 0xbd74ba3e3b13c0a0U, 0x3d74a3e6bd6938acU,
  0xbc65ee803c5a1c20U, 0xbd2433b23bc41710U, 0xbdc4c90fbd23725eU, 0x3cbc331c3d22aba6U,
  0x3db7e25fbd95d7c1U, 0xbd83da34bdb8f0bcU, 0x3d4c75b63d6c6c7aU, 0x3ce8b5043db62c4bU,
  0x3c434db03d42df8aU, 0xbcd41a203c623560U, 0x3d832ac7bd83f0daU, 0xbd85c300bc0f3e68U,
  0xbd4d76153d4442ceU, 0xbdb1b412bcfeba88U, 0x3a2b3c803dd7c043U, 0xbd77bf7cbd8a9d38U,
  0xbb9af7203d127de2U, 0x3d6e49ae3d5814a6U, 0xbc893e143d323f96U, 0xbdc3982eba612a80U,
  0xbd84d48dbc9a3e08U, 0x3c089ed8bdd1bdffU, 0x3d7bef8abd6c3907U, 0xbd0e86403daba755U,
  0x3b4aea803d905c97U, 0x3d8c8b5dbd44533cU, 0x3d983cdb3d76f32eU, 0x3d920c53bcd0af1cU,
  0x3d7ee536bd811f28U, 0x3c467a30bddbd9b4U, 0xbda175783c084620U, 0x3d6c5d1abcba7604U,
  0x3db4e2e9bd6f1d75U, 0xbc32e820bd97e352U, 0xbddb53793da88c45U, 0x3dcc2f393d4c75c2U,
  0x3aa41b403c4fed88U, 0xbda3e28e3cc54e64U, 0x3cec3c74bdd866ecU, 0xbd0a6e423c3acfe0U,
  0xbd3e88bebd8d2bd4U, 0x3dcdce87bd2e4aacU, 0xbdd06419bd9d5611U, 0x3c5ea5a0bb24bb20U,
  0x3cd16ee4bd9306b4U, 0xbdd91579bdc55540U, 0x3d2e13e6bb55f100U, 0xbdc38c76bda7c9c6U,
  0xbd0befacbd781444U, 0x391b6800bd87e8a4U, 0x3d03678abd5400a3U, 0xbb943cd0bda8abfcU,
  0xbdc4f9ef3d30ccf2U, 0xbdb944edbca5ad44U, 0x3c430640bd4152daU, 0x3b9d8320bd72e16bU,
  0x3d9e134bbdd03974U, 0x3a1667803da4b71fU, 0x3d128196bda776eeU, 0x3dd189d7bd61941fU,
  0x3c1d5338bdd05fd7U, 0xbc922ec43c9b7014U, 0x3ba51450bcee9058U, 0x3bc48ef03dc0b795U,
  0xbc300108bdcc8caaU, 0xbd16c9e23db581edU, 0x3dcc27653d425a46U, 0x3c9eb8c43d2810daU,
  0x3cbc7e643da2b7cfU, 0x3da96c393d76e42aU, 0xbd97f2fa3dcfb9d1U, 0xbda16db1bd1d6116U,
  0x3db4ea1b3db6ca47U, 0x3d6b444ebda34001U, 0xbd65db073d47057aU, 0x3d4352b2bd961e2aU,
  0x3c679700ba0c5900U, 0xbdaee4f8bdadc7aaU, 0x3cd1779cbd44d31dU, 0xbd40d6c93d20557eU,
  0xbce159043bda8cf0U, 0xbda48e12bda545d9U, 0xbdb8996f3d2f6a1aU, 0x3c80b9d4bc6df960U,
  0x3d0ece0a3d1afe12U, 0xbd7fe26a3d576a2eU, 0x3d2ec09ebc801320U, 0x3da05d37bd8de120U,
  0xbdb2ef9c3dc52607U, 0x3d56d4ae3d0b114aU, 0x3dbdf9dd3d2b3606U, 0x3da76c59bc7564d0U,
  0xbb96bd30bc25f200U, 0xbdcb27aa3c218138U, 0xbce1d214bd9919b0U, 0x3da99e7dbd257b74U,
  0xbc00cdf83cbe9cccU, 0x3dacbe8f3d3bee32U, 0x3d8d4e11bdda5e82U, 0x3b4bc680bdced16eU,
  0x3d2aa0be3c2c06d0U, 0xbd8229eabd422c5fU, 0xbd42fa133da69919U, 0xbd8f19623d316e2eU,
  0xbd862000bb863490U, 0xbdad8126bdab3344U, 0xbd8c1f98bd9f6560U, 0xbdb56b883dd85429U,
  0x3cd32c843d21f9b6U, 0x3d1cebcabd10c474U, 0x3d93e441bcbee3c0U, 0xbb4860003d833321U,
  0xbbe3a550bccd431cU, 0x3dbbee0bbcad5b00U, 0x3d545a42bccdb388U, 0xbdaa41643c5f5d88U,
  0x3da126e1bb05f7c0U, 0x3da68039bdd3757eU, 0xbd293bbcbd1b4090U, 0xbd258964bd0de60aU,
  0xbb2ff9e03d862075U, 0xbd9724a83c1e5c20U, 0x3d2fb3cebc442598U, 0x3d8460913d987dbfU,
  0xbda3c69cbd078cb6U, 0x3c3419f0bdbbd409U, 0x3dbd2cf13d96be19U, 0xbd326d083d47771eU,
  0xbce9baa0bd82b31cU, 0x3d24a72a3b8212b0U, 0xbda73e443c28de10U, 0x3d887cdd3da7c5bbU,
  0xbdaf67443b720500U, 0xbd590d153c5a8690U, 0xbdbbe16cbd4970adU, 0x3d3461d63dd32695U,
  0xbb54ffa0bca7fb24U, 0xbdc8c390bdbb11e8U, 0x3cdf5094bc836b74U, 0x3d18ec7a3d4198eaU,
  0xbdb94e183daec537U, 0xbcca3e783d370a96U, 0x3c004808bd304c0cU, 0x3dd16e1bbd8af5cfU,
  0xbd8a9fcebdb18be2U, 0x3dbd48f3bbce4490U, 0x3d24f86ebd26e164U, 0x3d3e4072bdacbd46U,
  0x3dd6c1173d4893feU, 0xbdbbae3d3dbf0f67U, 0x3d1019763b4f1260U, 0xbda19becbb9b4520U,
  0x3dac8a273c647498U, 0xbdd8bdffbd0e23c6U, 0x3dd169dfbd9dab1aU, 0xbd9186b33cf0e50cU,
  0x3d9b2979bd7668daU, 0x3d9343393d74456eU, 0x3db15c97bdcc8d4cU, 0xbd9cc6e4bc354310U,
  0xbda99068bd03ac5cU, 0xbdd84dd3bd63f76fU, 0x3dcbeef33d9a6f01U, 0xbd83a976bd6efe17U,
  0xbd5861823d967361U, 0x3d847fbb3cc6011cU, 0xbdd2f44c3d380976U, 0x3c6bee58bccca4bcU,
  0xbd941cd23dd488afU, 0xbd81272c3d845e83U, 0x3ce22d1cbcb83b0cU, 0x3af2a8c0bd2ee584U,
  0x3d85b0653da3d577U, 0x3d1553f63bcfd2e0U, 0x3d86c547bdafcc10U, 0x3cfeac943dcf5acdU,
  0xbca42d5c3c8c1d4cU, 0x3d36d4cebdb84eceU, 0x3bbf3ed03d34c2a6U, 0xbcfad304bc5d95c0U,
  0x3d1268723dcd492bU, 0xbce0924c3d94a4bbU, 0x3d3ad8d6bd7e736cU, 0x3d052f2a3db9a03bU,
  0x3db003a9bda09101U, 0xbbdbeb80bd0db560U, 0x3bbf59403b734660U, 0x3d958bb7bd7518beU,
  0x3dbf7e83bda025a7U, 0x3db262b5bd4893efU, 0x3d11e63a3dbedabbU, 0x3da5753b3c94992cU,
  0x3d883c553d5fda4aU, 0x3d5c45febd7767c7U, 0x3cf0d17c3dc1d39bU, 0xbd01a588bd3c5f54U,
  0x3c14d3303b193b80U, 0x3d017da23da25f13U, 0xbc8949183d8e9f93U, 0x3cbd8cac3d70afbaU,
  0xbcf410bc3c64e880U, 0x3d36978e3dc28369U, 0x3dd95eb1bd53ca64U, 0x3bd519903c8d22f8U,
  0xbd171c923d9e93d9U, 0xbcdd1ed8bd82e7aeU, 0xbdbd9a5f3c9952acU, 0x3d03a902bdb35646U,
  0x3bf980703d40814eU, 0xbd0c1eea3d5c46a2U, 0xbd944cd63d55b7c2U, 0x3dd1aac5bd914adbU,
  0x3c8560d43da82a57U, 0xbdc8df353b96ef80U, 0x3dc636b1bd02f3d2U, 0xbd74ad083dd99c4fU,
  0x3cca10a43d656302U, 0x3d6614debd1d47f4U, 0xbcfcc7183d046796U, 0x3da8d5673d50ca76U,
  0x3d6e38de3ba5b270U, 0xbdd0c2ec3d6aeabeU, 0xbdb0fcc03c0662a0U, 0xbd0eacf23d39d022U,
  0xbd0f0c26bdadb912U, 0x3d8554673db493f5U, 0x3d7031563d8f3ab7U, 0xbd921a06bd8cf3c9U,
  0x3d72ad7a3cb07d14U, 0xbb1f0ee03da641c5U, 0xbd5ec49d3d2279baU, 0x3c4174d0bd594792U,
  0xbdb3fcda3ce2b82cU, 0x3d0b1ef63b922b00U, 0xbdadd9833c3dbb48U, 0xbd2554303cf93eb4U,
  0x3c45cc48bb9004d0U, 0x3d8760d7bd9682feU, 0xbd21f7ea3dd5baadU, 0xbdda17583b89f2f0U,
  0xbd8bc6a4bc55c3b8U, 0x3d09a732bb7466a0U, 0x3da3aa07bae401c0U, 0xbd496efc3dc3c31fU,
  0x3dd2582b3dbe15b9U, 0xbd47d57c3d92e7ebU, 0x3d85ee3dbd553765U, 0x3d06154ebdadb7a9U,
  0x3dbb50bfbd6ac088U, 0x3d7e63d23d884acfU, 0x3af88cc0bdb63082U, 0xbd191c8c3d85d989U,
  0x3c1d0780bd92a2d5U, 0xbdac8684bd9ec927U, 0x3d9aed65bd2fd070U, 0x3d335ae6bca2f0f4U,
  0xbd2ecddc3db19881U, 0xbdb61bc73da63d31U, 0xbc3b43403db470c7U, 0x3daf372bbccf18e8U,
  0x3d2b2136bd7ddc12U, 0xbd8439963c7ad5b0U, 0xbd70f9be3b982810U, 0x3dba2d593d81dcabU,
  0x3b4348003c6318e8U, 0x3c413cc0bdb05cf4U, 0x3c8976c0bdcb7a1fU, 0xbdad63e03ca249d4U,
  0xbd6a42353bb87e10U, 0x3cf2fed4bd8e184fU, 0xbd8b81c23ab52480U, 0xbd0b3f743dcbcfd7U,
  0xbd04aa663d1acadeU, 0x3d92624d3dcbff8bU, 0x3d5cb1f2bcd07698U, 0xbd53e47fbdbd62c1U,
  0xbdd919dabc5493d0U, 0xbcc7223cbd568c9bU, 0xbca902c03dd44aebU, 0x3d89efab3d39d09eU,
  0xbb1bbf20bdb3466aU, 0x3da1b25b3a1fb080U, 0x3da169cfbd8ed609U, 0xba7b99003d9bb765U,
  0xbcfe6f20bbc725c0U, 0x3dcae5b33cfaea1cU, 0xbc113f903b2d5600U, 0xbcdea6b43d6ef3aaU,
  0xbd372fbcbda25ed1U, 0xbba93f30bdb249c9U, 0xbb0e04e03b0672a0U, 0xbdbe83553d06d4faU,
  0x3d4bd1babd8db9ccU, 0x3d87d1c33dba99e5U, 0xbda89ec23d3f1d7eU, 0x3db908493c9ad72cU,
  0xbd2b6fdcbb63f6e0U, 0x3dd620513d84c7ddU, 0x3d46c9a2bdbb0d27U, 0xbdaa4016bd8c4516U,
  0x3cea63a43a884c80U, 0xbca96a5cbd96bbf6U, 0xbc97ebe83d279fa6U, 0xbdd668fc3c0777f8U,
  0x3d7022063d716742U, 0xbca458b4bd463847U, 0x3ce451dc3d708026U, 0x3d2ca21a3c6298f8U,
  0x3b3708a03bff72c0U, 0xbd47d74fbd62c2f5U, 0x3dd7c1a13d8770abU, 0xbd5b75e63d4c812eU,
  0xbc305bb03dda4dc7U, 0x3d67c85e3d93f335U, 0x3bc4c6d0bc498e80U, 0x3bab52e03d6c1dc6U,
  0xbdd77c783cac15f4U, 0x3cbfde4c3cefe21cU, 0xbd0dbd2abdb2b171U, 0x3d83fb733d1b520aU,
  0x3d18b7123d159ff6U, 0x3c3c10303ca9dd4cU, 0x3dba0f493cafd814U, 0x3cae98a4bd48e1bbU,
  0x3da865173d64e10aU, 0x3b1313803d4953c2U, 0x3dd8f6533a141a00U, 0x3d86ea41bdc4d574U,
  0xbdbe2ace3d9fb265U, 0xbdcd4c5abc9a36e4U, 0x3d94050dbd366a4cU, 0x3cac0b8cbcf090fcU,
  0x3c954ba43d08d3c6U, 0xbc3129803c78ce90U, 0xbd21ad0a3c8701d0U, 0x3cd1c214bda16659U,
  0xbd425f5e3d283cd6U, 0x3d879dbbbcdb0dc0U, 0x3bb6c190bc2b2a98U, 0x3c5b7a503daacff9U,
  0xbd80c9883d956289U, 0xbd490913bd37de34U, 0x3dae4673bca87cf4U, 0x3dc645e7bdae0888U,
  0xbcaa5d70bdcf4c09U, 0x3ca7a9243dbdfad1U, 0x3dab02293d8046e5U, 0xbdb29d35bdc9f2fdU,
  0xbc8aaca4bda1060cU, 0x3ce2ac4cbd96103aU, 0xbdbadfeebc1de980U, 0xbac07a803d744f92U,
  0xbd9443bcbb29d700U, 0xbd92ab02bc06c950U, 0x3c98402c3dd96b1dU, 0xbc38f7903d9948cdU,
  0xbdd6e5333d3d5a5eU, 0x3bbddc60bdad5382U, 0x3d22cb72bd260cdeU, 0x3ce43adc3ccdf0ccU,
  0xbcf0ac703a022480U, 0xbd184c443d9a8cd5U, 0xbd3a3bb73afc0200U, 0x3c88e5303c76b128U,
  0xbcc529dc3aa1df00U, 0xbd2cd5003cab720cU, 0x3d694c763d54e10eU, 0x3db616953cb4c604U,
  0x3c0527e83dc35c63U, 0x3cb8906cbbb779e0U, 0xbd0f88d4bd2127a2U, 0x3d28c59abcb6bee4U,
  0x3b9cd030bd24a3d0U, 0xbcfbd024bd56e427U, 0x3d5681f23cec2b44U, 0x3dbb81953db5fec3U,
  0x3d7806ae3d64289aU, 0xbcfceaa83cc2640cU, 0x3d7e5ece3cd4325cU, 0xbdb6a0d43dc62ed3U,
  0xbccb79f43c90d74cU, 0xbb14d9a03ce7c56cU, 0x3a08ee00bdd49c4cU, 0x3dc77d0d3dd4e57dU,
  0xbd7539963d4bf6d2U, 0x3d95c79b3d6ccb16U, 0xbd8fe2e63d37dadaU, 0xbc44f7b03ddbb9d1U,
  0x3da20effbdcfe479U, 0xbdca836c3db30f4dU, 0x3d8133b33d76b632U, 0xbd794c943b7d3fe0U,
  0x3d426efa3dd735b9U, 0xbcef72ac3d6abe3aU, 0x3d39ff763d82567bU, 0xbc8148283d5daceeU,
  0xbce4eed83dc7ff8dU, 0x3cb79574bd7f6bc5U, 0xbdcf9d593d145f46U, 0xbd9db0b0bd1e6390U,
  0x3c9c6334bda0161bU, 0xbd1f2368bd72ad44U, 0xbba39840bba43ca0U, 0x3d834be9bda23708U,
  0xbd4eccf63b523aa0U, 0x3da3fd77bdbd9bd2U, 0xbd3a6a8d3c2a1c40U, 0xbc4b52003d975f51U,
  0xbd9eafdebd8073c2U, 0xbda55f18bc6a1ac0U, 0xbdb56f4bbc95d998U, 0xbcb57d04bd9ff988U,
  0xbb044040bd0de55eU, 0xbd5e0e0fbdaa1072U, 0xb92196003d5a9a7aU, 0xbd9c200c3d06ce2eU,
  0x3d7d26c63dcdbc8dU, 0x3bea44203cd032acU, 0xbd386f15bd4ab347U, 0xbd88b75ebc9418e8U,
  0x3dc0d2913d97b8b7U, 0x3d6603aa3d9e1f5dU, 0xbdbf61e03d8e8befU, 0xbd00e99cbd030aeaU,
  0xbdd4e1623baa5a20U, 0x3da1d005bcfc5b5cU, 0xbd88e58b3c1e6c08U, 0xbdbaf1fd3b70bcc0U,
  0xbd0e41fcbce4b9f0U, 0xbb7708003db374cfU, 0xbc0a21883da15d15U, 0x3c621bb8bc84265cU,
  0xbd72a6b7bd5954d6U, 0x3c580de03d1d81feU, 0x3d54ef063d758c0eU, 0xbd161cba3dc3dc4fU,
  0xbbda8dc03cc94834U, 0xbc97bef43d8c64c5U, 0xbd2932783d8f09ffU, 0x3d5900e23dbceca3U,
  0x3d6ab3223d387cc6U, 0x3d1a477ebd4dc418U, 0x3c477b20bc8fd1e8U, 0x3c510388bd92a120U,
  0x3d882f593cb24124U, 0x3c4e78d0bb272ee0U, 0x3d50d6023c933644U, 0xbd22e3ccbd0d8866U,
  0xbcd9e10c3da26de1U, 0xbd3bcbc43b6fb7e0U, 0xbd98efc8bd4af1d9U, 0xbc4ac640bcfacf50U,
  0xbce2c0383d8c0f61U, 0xbd17836c3dc3db65U, 0xbd449e3dbdbf1100U, 0x3c0273d0bcf41464U,
  0xbdd78eeebbb346b0U, 0x3dd4ed55bce3d888U, 0x3b2a01a03ac4b000U, 0xbdb4edc63d8efd37U,
  0x3dc782c93dc068d7U, 0xbc1b59a0bd8f3060U, 0xbce3455c3dbbf8e9U, 0xbdb680d4bcf9b8fcU,
  0x3d37aa66bda2051cU, 0xbdae8bc83d1fe756U, 0x3c01e050bc83ce98U, 0xbd18fbc23d44fb6eU,
  0xbdb8365b3d664832U, 0x3da3e483bc9a7aa0U, 0xbc5833483d52e06aU, 0xbaa14c003ce30384U,
  0xbd1540cc3dd01891U, 0xbcc23c68bdb7ad32U, 0x3aef8540bd62bbaeU, 0x3d0eeaeebcc88584U,
  0xbd70abc23dd8c5c5U, 0x3dbdddefbcde3a60U, 0xbd6201eebddaf907U, 0x3dbf07bfbc4dcb38U,
  0x3db1c51f3bace1a0U, 0x3daadbdfbb9b6d80U, 0x3b7187e0bd2d8d1cU, 0xbd8bf44b3dc07393U,
  0x3d497cdebba0a030U, 0x3dbfc4373cab708cU, 0xbdab45683dd328ddU, 0xbcada434bdb9fe6fU,
  0xbbc7afa03c7ceb08U, 0x3dd8b299bcd50000U, 0x3da1a6093dac9271U, 0x3dce8b8fbccf11a8U,
  0xbd84a9aabc77b440U, 0xbd21a0a2bccb6f0cU, 0xbd9ea368bcb6755cU, 0xbcb519a83d98273bU,
  0x3cc06f44bdc1c45eU, 0xbd9873f83c6f4c40U, 0x3dad8de13d251b4aU, 0x3daf40613d9f0031U,
  0xbc270f88bbd574a0U, 0x3c0c99403da0dac3U, 0xbd0dbea4bd42a447U, 0x3ce6423c3c8818b8U,
  0xbd9423143c866dccU, 0xbd009cf0bd80d8deU, 0xbda44844bd695f7aU, 0xbcc1cb203d5447beU,
  0x3cd4f0a43d1e5666U, 0xbb21b5603c84b494U, 0xbc9b4ec4bd3bdc33U, 0x3d5dce763db35f0dU,
  0xbccf213c3d89498dU, 0xbdd6953a3d895821U, 0xbd46f05dbdaa4d98U, 0x3acbffc0bd900d81U,
  0x3c5cb748bd4dc26eU, 0xbcd9886cbd9e10ccU, 0x3d85a18f3cd5fad4U, 0xbda4b0c8bd44971fU,
  0x3dac5c13bd850e76U, 0x3d7c83ee3c28d3c0U, 0x3a2c7000bd894a92U, 0xbd2c04aa3d99582bU,
  0x3c6bcdb03d6c39c6U, 0xbc975efcbc3361f0U, 0xbd9c49333d8124b7U, 0xbd999a56bcb53838U,
  0xbc73b9803d975077U, 0xbcc373d0bdcf6940U, 0xbcb8d988bb63aec0U, 0x3d9cde913cd03cfcU,
  0xbd0dbdac3b70b800U, 0xbc9396203d54dce6U, 0xbdb1dc0e3ddbe2a1U, 0xbc766b90bd4aff8bU,
  0xbd3b6e3b3b9861a0U, 0xbd05a880bd93d106U, 0xbd98ca06bd16e042U, 0xbd92a5e2bd560a2dU,
  0x3dba26d73d3811e6U, 0xbdcc1859bb8350e0U, 0x3dae0e55bd965856U, 0x3ccf2b8cbd447fe5U,
  0x3d3867923d7acc9aU, 0x3d8eb0033c42d750U, 0xbbab77003d6669caU, 0x3dc4d4df3c8fb4ccU,
  0x3cc3fa84bc54c820U, 0x3c177f88bd6c105fU, 0xbb41b3a03caeeab4U, 0x394d92003d3d33baU,
  0x3cd576443db23c0fU, 0xbbf73fd0bd8e2e69U, 0x3c4c82f0bd168154U, 0x3cb7294cbce06934U,
  0x3dae44c73cfaf244U, 0x3d571f0a3daffaefU, 0xbd7aa4da3d8f5625U, 0x3dd1d4c1bbfdc770U,
  0xbda0cb02bc8d4134U, 0xbdb90ce5bd3f8216U, 0x3dbba6d73dd6a50bU, 0x3d100f5e3db46ddbU,
  0xbbc30e603d9cbbbbU, 0x3dbbc15bbdc5788aU, 0xbd5855213dda8cbdU, 0x3dbdefa13dd0ec17U,
  0x3d0888c2bd87325bU, 0x3cf88c9cbd917d50U, 0x3d6249be3cd1c6a4U, 0x3d9900493cc4cfacU,
  0xbd02552a3d7fb242U, 0x3bb881f03c757860U, 0x3d3c911e3d08e766U, 0xbc5c9068bd2d16a8U,
  0xbdc7e8b63db6ad21U, 0x3d7128c63c95713cU, 0x3d40bacebc4a3a80U, 0xbd0ee4f83da6c319U,
  0xbdb3ea3abc827490U, 0xbd9d864cbd59b9b4U, 0x3dc6d347bd9099b2U, 0xbdaa3e463b643680U,
  0x3cbfc1943d84abcfU, 0xbd4da26c3d869b09U, 0xbcca44dcbdb8e499U, 0xbd4cd59a3ceb5194U,
  0x3d904215bd761ed7U, 0x3d62213e3cc6b0bcU, 0xbdc57ad23d41b62aU, 0xbd35adf8bdbc941cU,
  0x3d93cfb5bdcc9c45U, 0xbd031ba43d807c23U, 0x3dd0e317bd3b195fU, 0x3db7b45d3dc475c9U,
  0xbd56a3c13db39ca1U, 0xbdd79e5f3c4173d8U, 0xbd8713313d0aaef6U, 0x3d4c91ca3d32f476U,
  0x3dc245933da0ac4dU, 0x3d9885e93b6dd420U, 0xbb0ec4203d3095beU, 0xbdaeee50bd9b8f96U,
  0x3d0d85ca3dd31735U, 0x3d71f87abd2cf532U, 0x3db0e559bd979d53U, 0xbdc825343dd8a14dU,
  0x3c6979883d90744bU, 0xbd10feacbc098d68U, 0x3c1994a8bd061806U, 0x3d8ffe25bd31b66cU,
  0x3d9c7397bc2bb168U, 0xbc8a03843db4c01bU, 0xbdd8f30fbd6fc9d5U, 0x3d67fdea3db6fb45U,
  0x3d62bd3e3d9c2a35U, 0x3dba340fbd95ba26U, 0x3db11163bc880868U, 0x3d9e9699bcd19d84U,
  0xbd99c9d73d938e55U, 0xbdc4003a3d0ea54aU, 0x3db638cfbdc6f317U, 0x3b6fe6c03c509028U,
  0xbd8aebdcbc8daa34U, 0x3c4724e0bd21dd24U, 0x3dc7b21bbd75ee51U, 0x3d326e363d39e3e6U,
  0xbbc3c540bb5f9f00U, 0xbccdac70bce84368U, 0x3cc30f5cbdad520bU, 0x3c620b283cdd4d9cU,
  0xbd4993ce3d189c1aU, 0x3c3cc790bd8111cfU, 0xbdb8cacabcfa9ef8U, 0x3cf9045c3b871d70U,
  0xbd844d00bc534d98U, 0x3b7394a0bdbd3479U, 0x3d9f25bb3dbe5ac7U, 0x3d727c72bdcac383U,
  0x3da322633d92d3cdU, 0x3d92de433b90d490U, 0x3d01b3aa3d05513eU, 0x3db24e59bd948ba2U,
  0x3d4ed1ca3d897a09U, 0x3d9e3cb1bc8ccb0cU, 0x3db59dafbcbda268U, 0x3bf14d803d35f536U,
  0x3da1cbcd3d9d6467U, 0x3d459a9e3d735beeU, 0x3d05f5e6bdb3c615U, 0xbd4d51823d01a21aU,
  0xbd5820dfbc308110U, 0xbce57d8cbddad01aU, 0xbd22e2383d2a5cdeU, 0xbd3663883dc823ffU,
  0xbd825972bd3b5c0dU, 0xbda1756d3db0a735U, 0xbd97d048bcaec8c0U, 0xbcfeea2cbbf70450U,
  0x3da8b4633d3c96e2U, 0xbdbe59d039cb4300U, 0xbcb39ab83b7f70a0U, 0xbd47ac883dc319afU,
  0xbdb6daa5bcc2df08U, 0x3cf0982cbb8998b0U, 0x3d987b5fbda96ffeU, 0x3b1db2603dd53289U,
  0xbd53d567bbceb070U, 0x3cc2777c3b1482e0U, 0xbdb7cbebbdc90ac7U, 0xbdb863cb3d123822U,
  0xbdac86e1bd90f828U, 0x3aedff003ca9a8dcU, 0xbdcad9fabcd89374U, 0x3dc8c3bfbda574acU,
  0x3cfc58f4bcc3a1f0U, 0x3c99ca04bc8261a8U, 0x3d8535b93d7f1b9eU, 0xbd973a763d244fd6U,
  0x3d7d0c223dd0709dU, 0xbd860afcbc2b67d8U, 0xbdd1d7173dba4fe5U, 0x3d6838f2bd9b7f6aU,
  0x3d074e923d85648fU, 0xbdbb9d143db00b17U, 0x3d933b7fbcb3752cU, 0xbd8102d03c56af10U,
  0x3db123f53d183a32U, 0x3985f3003c1336e8U, 0x3d8cfe5dbd9ea935U, 0x3d4df832bd3304f2U,
  0xbd9d7424bdc97013U, 0xbdd45e5c3c3c10d8U, 0xbd83007e3d56b6e2U, 0x3dd07d9bbdb341a6U,
  0x3c76f0c03d875801U, 0x3c8b20a8bc9a1f60U, 0xbda3b9d13d2c75feU, 0x3d34484ebda310beU,
  0x3cf43e74bd8096b6U, 0xbb872480bdd1ad6dU, 0xbd73056ebda60e99U, 0x3c8eff6cbddbab83U,
  0x3d9aa503bd52614fU, 0xbd7bc3edbddb6d89U, 0xbdca89c0bd1bf4a6U, 0x3d0e0ada3daf48cdU,
  0x3d642706bb228760U, 0xbdaea2a33cf43294U, 0xbc81688cbdce6600U, 0x3c5a14b8bd0bae5eU,
  0x3da24d9bbdca4d46U, 0xbdbc88dcbc201880U, 0xbc96b0443dd0fbe5U, 0xbd2b5b063d8036bfU,
  0x3cf8a06c3dc9488bU, 0xbd5c10193da82869U, 0xbd1daf28bd7691e9U, 0xbc846f90bc85e168U,
  0x3c5e1768bd8f88feU, 0x3db02af33d61991eU, 0x3dbe8cf1bda015b4U, 0xbda5ead4bd6ee275U,
  0xbd856ecdbd1d7888U, 0x3b932510bcb401f0U, 0xbda22238bce76608U, 0xbdb1e8283d528582U,
  0xbd3e3374bd5e1ce9U, 0xbcfce03c3c56bde0U, 0xbd63f70fbdcb21c9U, 0x3d0255923cd3b984U,
  0xbdc79600bcee077cU, 0x3d4ccd623dcd15d7U, 0xbb806a30bd9d4ebcU, 0xbc1b51903d8edaa1U,
  0xbd9bd4363dbd122dU, 0x3d24817ebdd0f3adU, 0x3d8f3a25bdc3f2d4U, 0xbd94b734bc5cb128U,
  0xbcd6d448bd66f9f7U, 0xbd8f0b273cbad574U, 0x3d2979aeba4b0a00U, 0xbd94c5f63bb3acb0U,
  0xbdb2563b3dc40b2bU, 0x3c73aa08bdcfa91cU, 0x3a690200bd953b16U, 0x3d5e56c6bdd10143U,
  0xbdb3b005bcf2c938U, 0xbd0e8e023ddbb8ffU, 0x3dcca3553d5d6d12U, 0x3d34b1823d38d656U,
  0x3dcb6c47bd1a30fcU, 0x3cae3a34bda94b4cU, 0xbd43e3933d0c3782U, 0xbd49c6053c8e8ff8U,
  0xbcda3604bcb11258U, 0xbcbcf6c4bcc62158U, 0x3d99dd29bd310eb8U, 0x3ae65a40bd1813e0U,
  0x3d82ac39bcc7b7b4U, 0xbd0177743cf46a34U, 0xbcd242f0bc427bb0U, 0x3d9ccdc53be58870U,
  0x3d8cfebdbdbeb32cU, 0xbc4736403ddb7073U, 0x3d95f4f3bc2770a0U, 0x3dbcafc9bc46d1f0U,
  0xbcb7c404bd4d9af4U, 0x3c0369e8bd3d832eU, 0xbd8a7c283a2f2f00U, 0x3ca1ccccbd76aebaU,
  0x3cb690dc3dc9941dU, 0xbd892d1cbd94f6fcU, 0xbd502c143dbcee43U, 0xbb202780bd55abd6U,
  0x3d108d5e3ba60180U, 0x3dbf81b53d8fc8a7U, 0xbc1966903da5ba95U, 0x3d517c5abdc51455U,
  0xbd82bdf23da55551U, 0x3d890603bdbd612fU, 0x3d8ce6d7bd7462acU, 0x3d16e7eabd096014U,
  0xbd811a483d3e93eaU, 0xbd7f7fa43d03e182U, 0xbda8b033bd63fdefU, 0xbca6035c3dd93fa7U,
  0xbda3d2333b26b100U, 0xbd7aec9b3d9b5b79U, 0x3d188a5a3bbc7180U, 0x3d10f4d23c5a29a8U,
  0x3d4e5e36bdb76d83U, 0x3b60df80bd830361U, 0xbdb5465e3da4d601U, 0x3cbe7b2c3db32babU,
  0xbdbb5e30bdd42802U, 0xbd791e2d3d953e0bU, 0xbd246c1ebcaf3f90U, 0xbd422d493dc261b1U,
  0x3c0536b8bc3abd10U, 0x3b7bc6403da3138fU, 0xbc3f78f83d5f9946U, 0xbd2c201cbc519e00U,
  0x3d6441ae3d9d5c31U, 0xbdb0f7803d28807aU, 0xbd9106a53d7ea37eU, 0xbd0d7a68bcf81550U,
  0xbc51c8003d9e2afbU, 0xbd3e34b7bc7349b0U, 0xbdb003653bcd8d20U, 0x3cb11264bdc68c0cU,
  0x3db7c8bfbdc19e01U, 0x3b1fd8c03dc17b83U, 0xbd535080bdae445aU, 0xbd0daaf6bbe83780U,
  0xbd72d1b53cc7a01cU, 0x3dcd6e673dc8213bU, 0xbd91306ebdc21b6dU, 0xbd6e8f43bd7d5becU,
  0xbdc566dabccdf6d4U, 0x3d422332bd6f3894U, 0xbdad93cc3bfe6860U, 0x3c8fbebc3d22008aU,
  0xbdbd62573d125fbeU, 0x3d83fd37bda672f0U, 0x3ce5e1643d2d462aU, 0xbdae1a5dbc9d4b70U,
  0x3d04486abcd3d794U, 0xbda4336d3d9cb1c1U, 0x3c04c6e83c64c0e0U, 0xbcd23960bdd86764U,
  0x3d5ba9f2bd4d12ceU, 0x3d39705ebc64dc08U, 0xbda57940bda595e0U, 0x3d62d3ca3dd72f63U,
  0xbb7f57a0bd6b867aU, 0x3dd2c7e73c883868U, 0x3daa3b693db133bbU, 0xbd9731dabc3c2890U,
  0xbd5154f4bbe9cfe0U, 0x393bbe003dc95977U, 0x3c2e0ce0bd94c309U, 0x3d81b3ff3c7a02f0U,
  0x3db6fd65bd5968d8U, 0xbd5b5ab9bcb2d760U, 0x3d8ada63bd20289eU, 0x3d420d3ebdb688bdU,
  0xbdbebcf6bd79eea5U, 0xbcb3916c3c2ba940U, 0x3dbcdf93bd355546U, 0x3cf0d93c3d59948aU,
  0x3dd6ccef3db49cb3U, 0xbca030683db6145dU, 0xbd950e41bdd59bbdU, 0xbdd478803bb50690U,
  0xbd281f6e3d88a90bU, 0xbd6eab4cbc8af898U, 0x3d1cd14e3d2b80eaU, 0xbd8a5403bd6f6d52U,
  0xbd970576bd405b94U, 0x3cf8589c3dd0ae59U, 0x3d1f0a0abb135000U, 0xbd84db70bc972c48U,
  0x3d18752a3d51afe2U, 0xbccf00bc3c1e5ab8U, 0xbd15a4b0bdb31c9aU, 0x3d3fba2a3d3f4b02U,
  0x3dd195c5bc190b90U, 0xbbddef50bdd8d57eU, 0xbc9628703db95223U, 0xbd43b782bdc86233U,
  0x3cccafacbdc168b3U, 0xbd9408e2bd8907d3U, 0x3d0a3ea63c6d1728U, 0x3d824d4b3cfda76cU,
  0x3dd091513d8a598fU, 0x3d2f60823d20f306U, 0x3d55f0563d2a6312U, 0x3c2c19303bce5fb0U,
  0xbdd3fcbb3d3f0386U, 0xbdc608d7bda66e00U, 0x3c8135cc3d998de9U, 0x3cff0a9cbdbef19fU,
  0x3d720db23d756292U, 0x3d239186bd7eb084U, 0x3dda0b7f3d931c71U, 0x3d201e0a3da589f1U,
  0x3cc4eb143b825e50U, 0xbb876670bdc5e518U, 0xbdcded773d175fd6U, 0x3d9be8e93dda9e6fU,
  0x3caf33243d067726U, 0xbc8a1d4cbcf3d994U, 0x3d89cee5bd418deeU, 0xbbb2a0d0bd11c6a8U,
  0xbdcae59abcdce5b0U, 0x3da8ffbd39e98000U, 0x3d941d693dad596bU, 0xbd286bda3d2ebf9aU,
  0xbd4be896bd902fa0U, 0x3d9e589fb9aee700U, 0xbbc29800bc60a840U, 0x3c6b56403b5e66a0U,
  0x3dd5163f3c99a824U, 0x3d0a702a3db342e5U, 0xbdc08ec3bd96648eU, 0x3dd9f6bdbd0a3502U,
  0xbc9f375cbd4c2094U, 0x3d9b658fbd7d099dU, 0xbd40808ebd51aa83U, 0x3cc3acac3d0b640aU,
  0xbdcef5ea3d0aff1eU, 0x3c8f94903d1680deU, 0x3d839613bc786af8U, 0x3a5a5f803dd067b3U,
  0xbd19c9923d4d3616U, 0x3ceeb09c3d84a6b5U, 0x3c49ace83d8ec911U, 0xbdb10e043dc7daa3U,
  0x3d42eaaabd0767f2U, 0xbd498f9dbd4e8f24U, 0x3dbd78333dd56c4fU, 0x3dccf7a3bd16c85cU,
  0xbd2a9de43d9b9c67U, 0xbd5dccd53db58c17U, 0x3d952767bd075abcU, 0xbd28af34bdc46c96U,
  0x3cac9be4bdbe0298U, 0xbb51b720bb58ff00U, 0xbbf3aca0bdb94d62U, 0x3cf5ff9c3cfa9cb4U,
  0x3d5a3c6e3c89c8ecU, 0x3d5bf2523d4bf822U, 0xbc8de9503b4a8980U, 0xbda816d53d812253U,
  0xbdd3e4603dc23e23U, 0xbdcfc9febc1428b0U, 0xbdcba162bdd6e31eU, 0xbd796c4b3cad5cd4U,
  0x3d6aaa22bd272344U, 0x3dceb4cd3dcba7a3U, 0xbca728a83da053d7U, 0x3dd60a233d56d1f2U,
  0xbcbd5b40bda856e5U, 0xbd9e3f7cbca1e5c4U, 0xbdb3d79abd88e732U, 0xbbf3b3f0bd93f486U,
  0xbd955fe03d34c3aaU, 0xbd3f689abd06c96cU, 0x3c371b603d05ce42U, 0xbbcc21d0bdba48dcU,
  0x3d5fa4be3cebd614U, 0xbd8bd9c03dbc09e1U, 0x3db0b2ed3dae3c4fU, 0xbddabef83b557540U,
  0x3d52414e3c91ae14U, 0xbd2534a2bd8ab218U, 0x3d77e9e2bcab1c34U, 0x3d348a1e3dcdb189U,
  0xbcac0b98ba123380U, 0x3cdc7a3cbd306884U, 0x3da0843bbd01c80aU, 0xbd1383b63dd2def5U,
  0xbcb8eedc3ca430a4U, 0xbbccfe10bd89e351U, 0x3dcc63753c928cb4U, 0xbc9602243bde1000U,
  0x3dad4d093d82b1fbU, 0x3ce03b2cbd1a641eU, 0xbd95a610bdb273f9U, 0xbda3fdcc3dc1a66fU,
  0x3d63042e3ce8c3fcU, 0xbc1a34103db2f6abU, 0xbd3886e0bdaf81d6U, 0x3dc6b3913cfa0d24U,
  0xbd906d14bd19fd4aU, 0x3dc894f9bccc6328U, 0x3cfd09f4bd400f42U, 0x3da144673cbdbd34U,
  0xbd9b17a7bd0c5014U, 0xbd2f313ebda8044aU, 0x3d6ad08abd842d8eU, 0x3b97a270bd5d1805U,
  0xbc994f243da6d3d5U, 0xbd7707213dcd1af1U, 0xbdabb4493da6eb2dU, 0x3d689dce3d405006U,
  0xbd8193f9bd934070U, 0xbcf67c7cbbf63950U, 0xbd878cc6bdb51256U, 0x3dbb03af3dcd36c7U,
  0x3dac7ff93dcbcb6fU, 0xbd6190643d324526U, 0x3c6b4ea0bd439393U, 0xbc7790483d3ee26aU,
  0xbdb4db613d844f83U, 0xbdcd5c093d9dde4dU, 0xbd0c3978bd571b8dU, 0xbc5a34b8bbf73de0U,
  0x39f51d003cf97f4cU, 0xbd16a7383dcdde11U, 0x3d0a4f8a3d4e03daU, 0x3c8b9338bda59c8cU,
  0xbdc75ad73d2df60eU, 0xbd5d1e39bc893e90U, 0x3ce8de0c3d7616faU, 0x3daf2103bc8898a8U,
  0x3d88678bbdac9f96U, 0x3d102e1ebdc60892U, 0xbd70e4953d5eb456U, 0x3d8228b1bdc56621U,
  0xbd652064bc50c5a8U, 0x3d54c6823c9fc37cU, 0x3dbb30f93d398a56U, 0x3d1078eabdb00aa2U,
  0xbdd045dc3d076876U, 0xbdbd0c1c3d83b8d5U, 0xbdb90c9c3c3805e0U, 0x3da6e5ff3dbe68f3U,
  0x3ce52764bd6bacfcU, 0x3d2c8cd23cab184cU, 0x3d1c70e63d2a9832U, 0x3dcb2e653d6d67feU,
  0xbd93a936bd275d08U, 0xbdd91fc2bd5310e9U, 0xbd9cc714bdd0f2dbU, 0x3d53cdaa3dcc0839U,
  0x3d1f6fcabdaa22deU, 0x3bee90f0bb7b80a0U, 0xbb6ad360bd8abfdfU, 0x3d30f7e2bd6e3a37U,
  0xbbdc71903dbebef3U, 0x3d7003923d10c022U, 0xbd6073c33d27dbeaU, 0x3becaed0bda8b14dU,
  0x3c5546203dda9bafU, 0xbd197d4ebabee5c0U, 0x3dd49f1fbc97c35cU, 0x3bb7c6a03dae593fU,
  0x3c01a7f0bd5601aaU, 0x3dd9fc5b3d5ae7eaU, 0xbb9cbca03d2d0f7eU, 0xbd1d82563d747c8eU,
  0x3a624b80bd81cc72U, 0xbc7899e8bd9832d6U, 0xbd6e2e5f3c956f44U, 0x3d414b3a3d0e55f2U,
  0x3d24600e3d2d0f92U, 0xbca68b40bcba3540U, 0x3d43bd863d5cc542U, 0x3cf414dcbd59e096U,
  0xbd6424b63d73ee96U, 0x3d852a1b3d2ab13aU, 0xbdbfc3fc3ceb42b4U, 0x3ba992203a335200U,
  0x3d6952b2bd0d6be0U, 0xbd86e6a03d1db82eU, 0xbd2d1cbabd3006faU, 0x3d97be0b3d9da86bU,
  0x3c64ff483dcc6129U, 0x3da941c9bc84ab80U, 0xbcf0179cba73b080U, 0xbd36838a3d918c31U,
  0xbc0ffe983dcd457dU, 0x3d72fcdebdbf9debU, 0x3d834e55bd851bcfU, 0xba2663803d1af55eU,
  0x3d46396e3dc1225dU, 0xba957d00bd04cfe4U, 0x3d9d4385bd185460U, 0x3da256d3bd9bd515U,
  0xbd6c7801bd85a6a5U, 0x3d87864d3d565cf6U, 0xbda813c93da4afc3U, 0xbc0cd1f83c86ef80U,
  0x3cb7244c3c889b14U, 0xbd844dd23d96914dU, 0xbd8716943d005a52U, 0xbd566b56bcc2b688U,
  0xbda656083b694ce0U, 0xbdb62e783d9ffc2dU, 0x3ccb3484bdb3a007U, 0xbd8f9d6a3d961551U,
  0xbc706338bdc200ecU, 0xbb4a0660bdbee122U, 0xbd2f3faabcd08e64U, 0xbd6296ff3c778668U,
  0x3d3a97723d552566U, 0x3c9856cc3dbe7867U, 0xbd8bb9d53d6ef98eU, 0x3d7a60063d3ba5c2U,
  0xbd05756cbd8263ebU, 0xbc8e56b83d977a51U, 0x3a9f4cc03db14265U, 0x3c4113303d118cc2U,
  0xbd00094cbd81eb2eU, 0xbd2b2fbcbddb49b2U, 0x3dc11b55bb1373c0U, 0xbd47ab45bddacc24U,
  0x3d846947bdcda597U, 0xbd42a4f33da5b1edU, 0xbdb6d43a3c3624f8U, 0x3da8a839bdafbe6bU,
  0x3d1bf7e6bd4deffaU, 0xbdb9b8cd3d8edfe7U, 0x3d5f9ae2bdd00540U, 0xbdc5f60e3d5d8e22U,
  0xbcbbe8c43d867f9dU, 0x3d963dedbdb0f9beU, 0x3d65821e3b4a4ce0U, 0x3db58059bda1d1c7U,
  0x3d2844d6bd290968U, 0x3dacc1bf3db56a4fU, 0xbd9bad20bda153e6U, 0xbd2d64d4bda61aa8U,
  0xbbd187003d1eae82U, 0xbdcc4c783d046ac2U, 0xbd0d2486bcd2ed4cU, 0x3cbed68c3dc14ad9U,
  0xbd3f8586bd949d52U, 0x3ca0ecb43d944671U, 0x3d0f8526bd435abaU, 0x3c8527843d83e0a9U,
  0x3d5c5ee2bc227788U, 0x3dca23cf3d4fd9daU, 0x3dac007f3dbeb001U, 0xbdd2a1a73cbacf04U,
  0xbdd90a92bdbed970U, 0xbda63ee9bd096c6eU, 0x3d00188e3d96b105U, 0xbdbfda24bd60421bU,
  0xbbd2f470bdbec10eU, 0xbb385840bd0039a2U, 0xbdc602573d4368e6U, 0xbd912a1ebc2c5c18U,
  0xbd9f73323d88f461U, 0x3d6a9bca3b9a8aa0U, 0xbd18c7ee3dbcb023U, 0x3d9c607f3d9104ffU,
  0xbc90b208bd6664aeU, 0x3dbbe4153d449486U, 0xbd9e76a8bdc36f9eU, 0xbd245c60bd9b0092U,
  0x3c92f324bd298dfcU, 0x3b2f2ec0bd852489U, 0xbc44ad783cf9afccU, 0x3cdaa1ccbcd40238U,
  0x3d959add3d049592U, 0x3da518ebbd265ba8U, 0xbd8836fa3d03894aU, 0xbd32e3603d2f196eU,
  0xbd8bf1243a739000U, 0xbc55d2c03ca2a6e4U, 0x3da68cb13d2927deU, 0x3d21181abd2ed96eU,
  0xbd15b06e3dc6f157U, 0x3dc375d53c38e5b8U, 0x3d58e642bd382a42U, 0xbd36a8d03d5a19eaU,
  0x3d8bc2ef3d8a8ce1U, 0x3ddb9e433dc05a31U, 0x3da312ebbc982184U, 0x3ce9809c3d001f5eU,
  0xbbdc5b403c720150U, 0x3d237462bcffb3bcU, 0x3d98adb1bdbfa256U, 0xbc1205f0bdbc88bdU,
  0xbc8809a43d17090eU, 0x3c0c36e03d0af996U, 0xbc8007b03d68b576U, 0xbdaebda03dd841d9U,
  0x3dd3e7ad3be7eb70U, 0x3c5b9b80bce79950U, 0x3d6a90c23d0db7beU, 0xbd6cb8e93cdc557cU,
  0xbda90fb53dcdd9e3U, 0xbb8ca2d03d4e4c22U, 0xbddb1cd63cb89a5cU, 0xbdb0adbf3db3a3e9U,
  0x3db1ccfdbdb781f2U, 0xbd83a7723dbd9b61U, 0x3ccf05acbd3e4ec4U, 0x3c1174103b3cf6c0U,
  0xbcb18f6c3dd51fcbU, 0x3d2eab223d92ae53U, 0xbd9da3233d9ce88bU, 0xbc394918bda84887U,
  0x3aa1f200bd908456U, 0xbdc3d2b63dcb3eadU, 0x3cb3ece43d8ee475U, 0x3c50c5003d304e26U,
  0xbd9013583c660fe8U, 0xbd9e41e0bd53cd9dU, 0xbcc88ee83cb288a4U, 0xbdcb4edfbd45247cU,
  0x3d59596ebca1bf5cU, 0x3d2a0d92bd2dde22U, 0x3dad2c3f3db25e15U, 0xbd963e72bd09f8f6U,
  0x3c95ed6c3c311fd0U, 0xbbb42f50bdc65676U, 0xbdbeeb72bc637130U, 0xbdb0f7d2bdaf34bdU,
  0x3da40f29bc798a38U, 0x3cfb7bdcbd8e3f4aU, 0x3c5996803d4af7c2U, 0x3d8e6afb3d56f672U,
  0x3dca57e93d411102U, 0x3d74b44ebbd0fce0U, 0x3daa304fbd259ed8U, 0x3b669920bcbffe94U,
  0xbd9024ca3db4c7a1U, 0xbd1b37e43a8d6940U, 0x3d5b23063d87643dU, 0x3da87f4f3d1292beU,
  0xbca99920bdb54d0aU, 0xbd9ba78abdc74cf8U, 0x3d71017a3d7cf20eU, 0xbd8029823d51a782U,
  0x3d67aa663d617dbaU, 0xbd641167bd5747cfU, 0xbd979534bdc8ca4aU, 0xbdbdabd03d5e1a86U,
  0x3dad5d27bcc0fab0U, 0xbdb5ec3fbdb3a487U, 0x3d9e6ebf3daa3565U, 0xbda191f23d8ccda7U,
  0xbdb79c623d730e6eU, 0xbd928ef2bd824e8eU, 0x3ddbc133bc252400U, 0x3d9c3951bc8f1658U,
  0xbd85d7883db28665U, 0x3abd0ec03d3f3842U, 0x3d78277e3dd0a731U, 0x3d69636e3d6e7f6aU,
  0xbd4540c33da8dcdfU, 0xbcb455903d3c6f4eU, 0xbc504488bdd17bccU, 0xbd3ddfc0bd79b299U,
  0xbcd4ed50bd562ef7U, 0xbddbeb0dbc0eb9e0U, 0x3cfef514bca2c928U, 0x3d74ffe63dbe2ddbU,
  0xbd3520be3ab95180U, 0x3d53ec92bdcdde6aU, 0xbbc8b9d0bd6ed077U, 0x3d992249bdbfd9fbU,
  0xbda354033cc1cb9cU, 0x3d96ae413d888583U, 0xbdca163c3dc54141U, 0xbd5c9dbabcbcc410U,
  0xbd93c22c3db7fe07U, 0xbc671a18bdcfc0beU, 0xbd6327d33cdddb14U, 0x3d4c3306bdd6bec5U,
  0x3cd24aacbcaa94b4U, 0x3daafe533d85cf5fU, 0x3d7a666a3dd09447U, 0xbd0ea91cbdabff9aU,
  0x3d8ca2c33d9f58bdU, 0xbcd30bdcbdb3e252U, 0x3c9d0f2cbd938982U, 0xbd1723643cf87464U,
  0x3ad07780bda0230cU, 0x3d4dec5abb0776a0U, 0x3d839a8f3cbbde8cU, 0x3dabd20d3d72d19aU,
  0x3d2f09a2bd86e40cU, 0x3dae35d93da593cbU, 0xbd60d29cbdb72f39U, 0xbdbeb14ebd2116eeU,
  0xbd28c3143da17d7bU, 0x3ce576e4bd16aa8cU, 0x3dd083d3bcee4b98U, 0xbce9bb60bc61c590U,
  0x3c67af10bd6eb04bU, 0x3d4e9166bdd6e05aU, 0xbd6ef39ebd3fa2c4U, 0xbd2d9040bb854dd0U,
  0xbd19744e3d6d4306U, 0xbd6047ef3d9c1067U, 0xbd7600a8bdae59b3U, 0xbdb9e41abb1961c0U,
  0xbd3d59bfbd7fff33U, 0x3dc322bb3d6a57e2U, 0x3db0f00fbdd170c3U, 0xbd614be9bcfa4228U,
  0xbd10b7cebb9890b0U, 0x3dd674853d01f0faU, 0x3dac44ab3c9526e4U, 0x3d36649a3d9bbd01U,
  0xbdbde16a3bb74730U, 0xbd40851fbce60218U, 0x3c81f2403dc65c6dU, 0x3d12333abda32a7bU,
  0x3db257113d8efaadU, 0xbb14b1a0bcaf99f4U, 0xbbc77b40bcb2522cU, 0xbd99032c3d565e56U,
  0xbda749623d3e4b22U, 0x3d740642bd6750ebU, 0x3cce7fe43dd10ca9U, 0xbd8834bc3d5ae72aU,
  0xbce008ccbbd7aba0U, 0xbd65737abdb3d802U, 0xbdd711d5bc91cfa8U, 0xbdb722b53d9e564bU,
  0xbd9cac443da6897bU, 0x3b4c81003c2d7cb8U, 0x3be2c9c0bd3560d2U, 0xbd8f180ebd3b1da4U,
  0xbd7f21e53b42ba40U, 0x3daddd593d8137e7U, 0xbd410cecbc4173f8U, 0xbdafb5703dbf5f1bU,
  0xbdcf59683d4324c6U, 0xbca6b3f4bc8467e4U, 0x3dd2cd65bd9de2fcU, 0xbd779ff5bcaa50d0U,
  0xbdac5e13bd0f6a46U, 0xbc7e2ae8bd319496U, 0xbdb4c362bdbfd4d3U, 0xbd746f063d917a67U,
  0xbb6912e0bdb5fd94U, 0x3d5a12a63d6070c2U, 0x3d2ca64ebb020ac0U, 0xbd154a463dc29abfU,
  0x3cf6971c3d071c36U, 0x39999b003d226136U, 0x3d5ece3a3d90c393U, 0x3cf9cca43cf0745cU,
  0x3d3826bebdab1b79U, 0xbb7766003da36f91U, 0x3daeeb13bd294a2eU, 0xbcbfb244bdb808ffU,
  0xbd53af83bcc902b4U, 0x3b9144b0bd4913d8U, 0xbc4042e8bcdfd96cU, 0xbd8969e5bd5bc963U,
  0xbd9b4078bd979bfeU, 0x3d71f4363dc3ea39U, 0x3d5ac466bb455b00U, 0xbd0fc4723da17a6bU,
  0x3dad0a5f39f7d000U, 0x3dd916a13db67605U, 0xbd5efb51bca49520U, 0xbd46e5983d376f82U,
  0xbc7f6e40bd53aedeU, 0xbdbf1e00bd16a096U, 0xbd233584bd79c94aU, 0x3db6f7a3bcc00e0cU,
  0xbd19f8d63c86a2e8U, 0xbdc3bb06bd4137b4U, 0x3d495b92bd22072aU, 0x3dca5e35bd3304a0U,
  0x3dc1b365bd1293fcU, 0x3d7df79e3d963ddfU, 0xbce12de4bd8e8e03U, 0x3d6f650e3dc69df5U,
  0xbc08c568bdcf1cf5U, 0xbd0b6666bd9a8b9cU, 0x3d305c36bc93c90cU, 0x3cf128143cb08eecU,
  0x3d8215ebbd96058eU, 0x3aa4b1c0bd3192e4U, 0xbcb4dcdcbd16d644U, 0x3cd51b54bc46f438U,
  0xbd90c828bcebe740U, 0x3cedc9e4bd726af7U, 0xbc517c983c516248U, 0x3db724b5bc9cbe68U,
  0xbd9dccd83c4b3ba8U, 0x3d1e9cae3cd7b6fcU, 0xbd5d23533c58b890U, 0xbd2410c8bd09e2ceU,
  0x3da2f90f3db156e7U, 0xbc9348ccbd91475dU, 0xbc82c2d0bd02601eU, 0x3c1c03383badc220U,
  0xbdd230803d054abeU, 0x3da6b153bc95b8e4U, 0x3d348dfebc21be20U, 0x3bb4a540bdc93875U,
  0x3dacb4653da23ae7U, 0xbdb2e3b6bd13bbeaU, 0xbb9efb50bcb5d12cU, 0x3d2dcf12bdc8a530U,
  0xbdbfe7c83d3ceb22U, 0x3db7a5d9bdb561daU, 0xbdda8bfc3b57c480U, 0x3cdc172c3c98cefcU,
  0xbd898e153d05efaaU, 0xbdc0bea13d030c8eU, 0xbdca08a9bd280f3cU, 0xbc1c6d60bd895f28U,
  0xbd55281e3d7c6ffaU, 0x3d594672bdb33216U, 0x3dd16479bd8a5f5cU, 0x3dca9a933dae74e7U,
  0xbda8307b3d97ff27U, 0x3d76aea63d22b556U, 0xbd6e94b03ce45ac4U, 0xbdac4e783d6851feU,
  0x3cf612143db5c6e7U, 0xbd51eb6bbda2f2aaU, 0x3da72de33d86c787U, 0x3dd20f193d59303aU,
  0xbd9f43e73d42ffbeU, 0x3c0b9d60bda41ca0U, 0xbd5ac283bd7c3c04U, 0xba03a900bdc82b34U,
  0xbdc97e823daa4117U, 0xbd3a15873dbda207U, 0x3d8bce233c4e2ab8U, 0xbd14a25a3d7e297eU,
  0x3d731056bd97702eU, 0x3d98a3433d039726U, 0xbca847683d4d89aeU, 0x3d5bc4e6bd5ab12aU,
  0xbd8c52b6bda526f4U, 0xbc57fbf0bc824f70U, 0x3dc654453c885664U, 0x3ca56f043dc8e7c9U,
  0x3c3231a03db2f887U, 0x3dd58875bd00374cU, 0x3d6eb566bd879112U, 0xbd316fe63d9a9c57U,
  0x3d3ec9fabdd0a02cU, 0xbdb08e20bd725afcU, 0x3d8feccf3d549902U, 0x3af88440bd80d220U,
  0xbcbf3fdc3d271deaU, 0xbda54c113dd2b477U, 0x3d66ba1abda28021U, 0xbd5a17fd3d494deeU,
  0xba938fc03d9d2195U, 0xbd095a2cbc323260U, 0xbd72ac0fbb83edf0U, 0xbdd3d0613bc6e050U,
  0x3a520700bc9b0fb8U, 0xbca04138bcb61124U, 0x3d394fcebd1dd088U, 0x3d38807e3da1b1ffU,
  0x3a6ebf80bd8a4790U, 0xbd59cfc0bdbe0849U, 0x3d4159ae3d2f1cf2U, 0x3cfba8ecbdd16f6bU,
  0x3d0a74a6bd9b80f6U, 0xbdc5b5fbbdc02a35U, 0x3d8199efbd90207eU, 0xbca84eb8bceeeaf0U,
  0x3d074d763dd9c475U, 0xbd1b44763dc737d9U, 0xbda0b1c83c4649b8U, 0xbd646f0b3d849835U,
  0x3d1d21563bc1d6b0U, 0xbcc96b203d962353U, 0xbbe5ee403da80cdbU, 0x3bc1ca40bccfc68cU,
  0x3dd9e433bd765fbfU, 0xbd8037c4bce1122cU, 0xbd71e1c43d7aee7eU, 0x3db3dbffbd31eacaU,
  0x3cbaeb443da737edU, 0xbdad5ebfbce50160U, 0x3da4d77bbd034680U, 0xbd90ae3e3c9065fcU,
  0x3da067c53d134c92U, 0xbd449cec3d3ec44eU, 0xbc8233e43c9cae64U, 0x3d828a89bdb5912bU,
  0x3dbe6ddf3d8eb811U, 0xbdd26e603dca0a6bU, 0xbd6db2d8bdc0865bU, 0x3d45ca7a3c2c88b0U,
  0xbdba46e33bbead30U, 0x3d9febcfbdb2a513U, 0x3d5830aabd6a028aU, 0x3d0b08323dce738fU,
  0x3ce0e0143d6a0372U, 0xbd66a35c3d41b22eU, 0x3d0e68b6bdbe4df2U, 0xbdcddcb8bcea4258U,
  0xbca5aef03d8dea37U, 0x3d03325e3d7317daU, 0xbdcc8a66bd917f99U, 0xbcbad41cbd2ae25eU,
  0xbcf74bf43d3b4d2eU, 0xb9accb00bd47c876U, 0xbdba1fd7bd423ef5U, 0xbdad66713d847307U,
  0xbd12c5ee3d94859bU, 0x3d898d2bbcbee13cU, 0xbd105eea3d345462U, 0xbd602212bb1a3000U,
  0xbdae9dfa3d83b217U, 0xbdb1ffca3d8c70a5U, 0x3ccf12e4bc9c3a58U, 0x3bf65ad03c9a039cU,
  0xbd4ec5933d8d8809U, 0xbd853bfa3d994543U, 0x3da970a9bd7be97eU, 0xbc1cfdf0bc2d8458U,
  0xbd716054bcb38bd4U, 0xbd4355163d805d75U, 0x3dca1a25bdacd1aeU, 0xbd496e95bd07e31aU,
  0xbd39727fbdce0a14U, 0x3da253c7bdba3e86U, 0xbae694003d58e1c6U, 0xbcea1548bd62091aU,
  0x3d8786cd3cfeac04U, 0xbc5752a83db513b5U, 0x3d0f2b523d2729eeU, 0xbd27e5283d6918e2U,
  0xbc2e71f8bd20585eU, 0x3dd182cb3d4d9e9aU, 0xbdce91de3d8f55bdU, 0xbdd3b7ccbd1dcd42U,
  0xbc9c899c3c70db88U, 0x3da24f25bdc1edf6U, 0xbc8556c8bda25bccU, 0xbd6cb1783d92f0a5U,
  0xbd8537443d6e19a2U, 0x3d0eba4a3dc86959U, 0xbba311903da49047U, 0x3d0468d2bdc0c34dU,
  0x3dc61c7bbb38e000U, 0x3dc532fdbdbcb845U, 0xbd34a4debd2509e2U, 0x3ba33c20bdb7557dU,
  0xbd801e14bdcc4732U, 0x3c299be03d37f222U, 0xbdcb8dce3dc9f035U, 0x3d51d242bda67376U,
  0x3d5d5bb2bb9e87f0U, 0xbc07f3303dba395bU, 0xbc1b2b703d602272U, 0x3db13c053d1b0f1aU,
  0xbdd8231dbdd4e369U, 0x3d9a3f213dc2f0f9U, 0x3dcafcf1bdc3de8aU, 0xbd45c5aabd697bbbU,
  0xbdd2b1183dc50eddU, 0x3db3a5bd3dd45e4bU, 0x3d66ac763dc33659U, 0xbd9f00863ca98accU,
  0x3da4ccf73d7d16c6U, 0x3d3bb316bdbefeffU, 0xbd779bd9bb8bf840U, 0xbc052980bd54b0b2U,
  0xbccb6f28bd3601e4U, 0xbce1895c3d989685U, 0xbd60dbb7bd0a38e6U, 0x3dce4f633cd24d14U,
  0x3cf316bcbdcc5226U, 0xbcfe14a03dbfd4d7U, 0x3ccce4f4bdd72cf4U, 0x3dabf10fbd49a75aU,
  0x3b895760bd15e59aU, 0xbdae531cbdd8d72fU, 0xbd72b7c4bd0000d0U, 0x3c292628bdc43c8bU,
  0x3d358676bc2aa628U, 0xbd1cb184bc9b7994U, 0xbd5331f83d9a5a5bU, 0xbd2a24743a3c3200U,
  0x3ce35034bdc6a0acU, 0x3da2e5a7bbdfefb0U, 0x3afd46c0bca7203cU, 0xbd7ee7dd3ca10b6cU,
  0x3dc04c373db318fbU, 0x3ce4d47cbd5bf1c7U, 0xbcdd73f83cd02b5cU, 0xbd96f34cbc56a4f8U,
  0xbd53b292bd5429feU, 0xbc371d18bab0eec0U, 0x3dd23b19bc075678U, 0xbd15dad43d8aa6dbU,
  0xbdc6c92fbd6dc340U, 0xbd560324bc459658U, 0xbbc2f9c03dbea14dU, 0xbdb93e173d1c4da6U,
  0x3dcf5aabbca556f4U, 0xbd85f6003d32ca96U, 0x3d71e216bd4cbb57U, 0x3ca824d43b74bd80U,
  0x3da138d5bdb93d53U, 0x3d5162163ddb8f4bU, 0x3b12c4e03d15f422U, 0x3dc77807bd6b523eU,
  0x3d6ca396bc4178e8U, 0x3db2a21fbd6ccad9U, 0xbdc74be9bc9f47b0U, 0x3dd67927bbb42080U,
  0xbd8d44a43dc8d719U, 0x3dc181a1bc5a9960U, 0xbdbbdd19bdd15283U, 0xbdce37d3bdda32a7U,
  0x3dc35dd73d8e9effU, 0x3b2e74403d372a46U, 0xbcc6da943dd94e71U, 0xbc464e203ce143a4U,
  0x3d4c68ca3c22bfb8U, 0xbd2f8fc6bdd59b78U, 0x3d84e6013dd07a51U, 0x3d6a69aa3d9eaea3U,
  0x3d231f123d88c8ebU, 0xbd55a5ee3cd0eb24U, 0x3b2f27603d9e4ac7U, 0xbc8e90ac3d8cfe35U,
  0x3aecc0403d92c9d3U, 0x3cc60bdcbdccc765U, 0x3d40e5bebdb04b1cU, 0xbd508437bd442376U,
  0xbdd1c557bbf69d60U, 0xbd893c68bdb4eac1U, 0x3db26103bbb75a20U, 0xbdcb54eebdc4c81bU,
  0xbd80d30dbdd87ec8U, 0x3dc25afd3d06fd9aU, 0xbdcc96e2bd3a0729U, 0xbd2312d2bc75c378U,
  0x3c171c103d3f57e6U, 0x3ceb7824bc858c8cU, 0xbd1e098c3d637aceU, 0x3a1a68003d4077d6U,
  0xbcc34e50bda9c1a8U, 0xbd85fa5dbd895976U, 0xbb700a00bd0295feU, 0x3d47b76a3b34e540U,
  0xbda5e964bca9b4b0U, 0xbd84ebdc3d153ab2U, 0xbd9d140bbd76cacaU, 0x3c5a6338bdb6e1b5U,
  0x3d65760ebd2c311aU, 0x3db09359bd3efa34U, 0xbd9c31f8bcc8dc24U, 0x3dcda14b3d8fced1U,
  0x3cd6ce443d23039aU, 0x3ccc40bc3d98844dU, 0x3b644fe03dbc2d05U, 0xbd29ed0e3d0fbff6U,
  0xbd822dee3d8677b1U, 0x3a656f80bcb0acc8U, 0x3bc50630bda77989U, 0x3ccdfbc4bd4618b9U,
  0x3ddbc47d3d269336U, 0x3d93b0573a5efa80U, 0xbdc1533a3cbf9a94U, 0x3d96f06dbdca4f72U,
  0x3cff923cbccc1734U, 0xbddb21ca3b94d4b0U, 0x3d609ee2bcd5e4d8U, 0x3d8daf2dbdc666d1U,
  0xbc8ad2f0bd6e5a0aU, 0xbd443922bd8d0c96U, 0xbd6aa652bd9cadeeU, 0x3da091653dad5345U,
  0xbc08f5d8bd9176e2U, 0x3c34e7e03c483658U, 0x3d9bfa1dbd1efddeU, 0x3dc80ebd3dbacb67U,
  0xbdb438a13d1ad36eU, 0x3a3a14803d06a83aU, 0x3d0915723d361bdaU, 0x3d6b85e23db1eb4fU,
  0x3dca827fbda29b7bU, 0x3d883a67bd20c5b2U, 0x3d3157ba3c338ea0U, 0xbcc4fc6cbbf42590U,
  0xbd92e9f8bd34302eU, 0xbd32b688bdca2168U, 0x3dc1657d3d1e581eU, 0xbbabed20bcc5eb5cU,
  0x3baf5dc0bdc2e242U, 0xbcdd5b60bdc566e8U, 0x3dc1772dbd2d3f9cU, 0xbd267358bc203100U,
  0xbd232b043dc9becbU, 0xbd47f7b9bdd7e300U, 0x3d832671bd350be0U, 0xbd84c968bdd1b7b9U,
  0xbdcc685c3daf654dU, 0xbdcba5773d5cfd16U, 0xbd6df80c3d5ff69eU, 0x3d8679ebbd85ac48U,
  0xbd0965aa3d2d6c9eU, 0xbd9a8f163c26f800U, 0xbda36a653dbd3611U, 0x3d4b30e23ce75c84U,
  0xbd366f1c3da3ad6fU, 0xbaf07e803d85d0c7U, 0xbcb0c1903ce98d4cU, 0x3d79f37abdb4dacaU,
  0x3d4a88aabdb6cccdU, 0x3dc2b68d3d8fa915U, 0x3dabf5c13d9ed11dU, 0x3d16eda23c82ad60U,
  0xbd5340253dadb8efU, 0x3dccff673dd1ea05U, 0x3d962a25bd819637U, 0x3dc88ce9bd99d8a0U,
  0xbae8ed80bd52d93eU, 0xbcd96c703dac2841U, 0xbc7210c8bdae6350U, 0xbd8632a03cfd80acU,
  0x3d6852363d263a2aU, 0x3c75ee18bce5f56cU, 0xbd28c132bd4c883cU, 0xbd78e39b3d13680eU,
  0xbc93d3e43da797a3U, 0x3c17ad10bd90d09eU, 0xbba0e5603dba8e81U, 0x3dc0c23bbbb0d880U,
  0x3d3b7b7ebd6044b6U, 0xbd89bf06bd9e4b8aU, 0xbd43a54dbd637d3fU, 0x3d9b6a79bcc62ea8U,
  0xbdbe03703c0d1798U, 0x3d6e7476bdbf33c7U, 0xbda37b493d920943U, 0x3d2dddc6bd8b9d4cU,
  0x3d69b98ebd70324cU, 0xbcd6d160bdb2d925U, 0x3d26ba063dbaf237U, 0xbd68f432bdbad06cU,
  0xbda4d716bd0d9e9aU, 0xbd568b2f3d80010dU, 0xbca23a743d8d7393U, 0x3d533dfabdd98f38U,
  0xbdbef1ebbd91a1c2U, 0xbce88484bdba3353U, 0xbdb11a6cbca4a90cU, 0x3dae192bbd01ae1aU,
  0xbd9c3502bc083710U, 0x3dbfef6f3d5564ceU, 0x3db0aebd3d71b3aeU, 0x3d9af9b3bb497dc0U,
  0xbd479e7d3d6e26beU, 0x3db2d0573dc71315U, 0xbd13e4323dc70bd3U, 0x3d22bf62bd28ab94U,
  0x3d22d5a6bd40a484U, 0x3d834237bd8e39c8U, 0x3bd02ac03d4fe2beU, 0xbd81b9503dc20469U,
  0x3dad7f633d96b8dfU, 0xbc84a728bd59432bU, 0x3d4edd663da9550fU, 0xbd8b918dbc962294U,
  0x3c168c90bdbc002cU, 0x3cb6f7ecbd93a392U, 0x3d8825c73cf40534U, 0x3cae7a2cbd3360deU,
  0x3d80ae0fbd3485ccU, 0x3dc73be53c825040U, 0xbc9873783cbedc84U, 0xbd9fc4d43cb3b944U,
  0x3dd1606b3da8a979U, 0xbdd65f5f3bd3d1c0U, 0xbce275743dc3de19U, 0xbc08cf303d18b0eaU,
  0xbd02b0fabd9ce864U, 0xbd430516bd937f40U, 0xbd1d2f5a3d336786U, 0xbae2ed003d785872U,
  0xbda683863cca9de4U, 0xbc89f3a0bb0235c0U, 0x3d6649a2bd54de90U, 0x3d5ad95ebdd42ce5U,
  0xbdc5ce83ba9ddf80U, 0x3dcb05d5bc6e0bf0U, 0x3cb6b01cbc0b4ba0U, 0x3d139a963cf8e3ecU,
  0xbcba983c3dcc075dU, 0x3d84593fbc136740U, 0x3d63e89ebced9f08U, 0x3dbfa0e7bd789727U,
  0x3c283660bd633d1eU, 0x3c69c1103d8e54fdU, 0x3da8517f3d0ccb8eU, 0x3d58ee26bcf1bdd0U,
  0x3da69da7bd6d022bU, 0x3d360c0a3d1ba596U, 0xbdc521ddbc9e9f28U, 0xbd9cefce3cdc65dcU,
  0xbdce901f3d2061d2U, 0x3c14e8f83dd60fd1U, 0x3d25741e3b64dc60U, 0x3ce252643d201942U,
  0xbd8c1492bd42a062U, 0x3d10491abd8dfbc0U, 0xbd625c0d3d7d4daaU, 0xbd1909e23d355aaaU,
  0x3c880aec3d69228aU, 0x3dd637bbbcb95d20U, 0xbd1f8ba2bda57e1cU, 0x3d918679bd589609U,
  0xbd8671a039f22200U, 0x3cde36543d8a853dU, 0xbd5a7b603c9dfa6cU, 0x3dac7cbbbd056c28U,
  0x3d828b873d7b3c6aU, 0xbceb00d8bd830d4eU, 0xbd1faf303d21509aU, 0x3dca8139bd26208cU,
  0x3d566f923ddbf06bU, 0x3d81daf73dcb2f59U, 0xbdae6ecbbd62761aU, 0xbc6b4b30bd99cde8U,
  0x3dc323073cdede2cU, 0xbcf36660bd34448aU, 0xbd356ce63dc18913U, 0x3d354362bda33a9bU,
  0x3b8fad603d52cd26U, 0xbdb326a9bdd9b2d7U, 0xbd378f6a3d2838eaU, 0x3d30ff2abd99ce15U,
  0x3d8862afbdcda7dfU, 0x3dab5ecbbc2837c8U, 0x3d0879c2bd07909aU, 0xbc891a503d9a2cf5U,
  0x3c9e31bcb9c77900U, 0xbd9f875c3d3ecaf6U, 0x3c43c108bc04d8b8U, 0xbd3702ba3d7789eeU,
  0x3c007c90bda33d44U, 0xbda0fc01bd59b2fdU, 0xbd9d11dbbbdaeee0U, 0xbcad921cbdd30e77U,
  0x3d9f30c5bdc64565U, 0xbdcfee053c5f1878U, 0x3dd580f73dd1fcffU, 0xbd4424303d2cb59aU,
  0xbd8de1803ce1826cU, 0x3da2a8e1bc99eabcU, 0x3d8440ffbd1b8488U, 0xbd0b583e3b40b480U,
  0xbdad838dbc411030U, 0x3ce4ab1c3dbb5133U, 0x3dbcb23b3cf99b24U, 0xbda1d0e13d73a3a2U,
  0x3d2d863e3dbd98b5U, 0xbd99875c3d920b45U, 0xbd0216443d2209b6U, 0xbd22ca423d92e14bU,
  0x3c3c30a0bc11d248U, 0x3d606f863d9b9565U, 0xbbd411f0bd37eb94U, 0xbd9af5f33dc53a35U,
  0xbbc4d980bdd49437U, 0x3d561522bdb70200U, 0x3cc58dccbdb7416eU, 0xbd3df172bd0030a2U,
  0xbc39a508bdcadf06U, 0x3c9d10f4bdcf761dU, 0x3d39c9cebd270efeU, 0x3dd02195bd91b358U,
  0x3d1dc17e3d819803U, 0x3ce04dfcbda02ceeU, 0x3d82ed593d568f4aU, 0xbd63a203bca37590U,
  0x3d974fbdbbb2e5c0U, 0xbbdc72403c836804U, 0x3db59d0dbd4784f3U, 0x3d8bb91f3bfa46c0U,
  0xbd94b6dbbdd7cd32U, 0xbdcebe53bc10f888U, 0xbd2d36c0bd8b17a2U, 0x3d7f8c8ebd195dacU,
  0xbb3866603b995ef0U, 0x3dc75a5b3d934655U, 0x3cfe4ac43d66175eU, 0x3c5a78483cb591b4U,
  0xbd4bd7583d19d99aU, 0x3bc22fd0bcc07e24U, 0x3c874eac3dc73d23U, 0x3d91f9ebbc99a808U,
  0xbd8a5f13bcbf4390U, 0xbc2ad9b839ee7e00U, 0x3d821ccf3cdc603cU, 0xbd8f62e6bd6599ccU,
  0x3d9c1ebbbda1c0baU, 0xbdd313fc3d91735dU, 0xbcbb9534bd2f8eeaU, 0x3dc1753d3cbf56ccU,
  0xbd105d4ebdb57bf1U, 0xbd8979123c8e67f4U, 0xbd533d76bd5f096aU, 0x3b08b2e03cf08f8cU,
  0xbda248463cbf0984U, 0xbd275c7e3d7eda16U, 0xbdb95fba3dbf4cd9U, 0x3d3bfad2bcd90becU,
  0xbbb36d503da0cfc7U, 0xbd81bb24bd9ab4dbU, 0xbdd3d4763dc9ee87U, 0xbd95100a3d935079U,
  0xbd02e6863d99fbc3U, 0x3d80702d3db072bbU, 0x3d061b9ebdcee063U, 0x3dcbf6673bcfabd0U,
  0x3d07effebdb78842U, 0xbd19ec4c3c95eb6cU, 0x3da9154b3d125c2eU, 0xbd89f7fb3dd9f5dbU,
  0x3ce0ed44bd03be16U, 0xbd2f28debd881f6dU, 0xbd8eedae3db0562dU, 0x3ce9e604bd4881adU,
  0x3da38187bda57ebaU, 0xbbc2e9e0bd810b00U, 0x3cfd639cbd81f638U, 0xbd3c3237bc1707a8U,
  0xbc7fee48bd9f6624U, 0xbdc78e22b9bdfb00U, 0xbd0a2d403d314ea6U, 0x3cbcbf543cf7ab3cU,
  0x3c8b1af8bdb3bb12U, 0xbcdcf924bdc6d2e8U, 0x3dc1b4f3bc90765cU, 0xbc4f4158bddb439aU,
  0x3daf94ad3d82e611U, 0xbdaf66ffbc24a858U, 0xbc933834bd6e5c9dU, 0x3d85f0a53db63b89U,
  0xbd0f13aa3acdb500U, 0xbd8478db3dc151dfU, 0xbc825de43d7b786eU, 0xbdd927b53b666f60U,
  0x3d325d223d5e3a5eU, 0xbd749e7a3d91cd4dU, 0xbd1c2a4ebdcd36bcU, 0xbca17af03dbd1f61U,
  0xbd81ea753dbd694fU, 0x3d3f07ee3b4110e0U, 0xbd0dcdf4baa6ff40U, 0xbb7a13603db8a399U,
  0xb9e18d00bca22e0cU, 0xbd7a67c9bd80347eU, 0xbdbf3e66bd2905acU, 0xbc81fba8bc413350U,
  0x3b9ccbb0bd18b0f2U, 0x3d40439e3c9b9dc4U, 0xbd8212943c00c548U, 0xbdc0ccc1bda33812U,
  0xbdbb30143cb62264U, 0x3dd3f45bbcba1ea0U, 0x3d5eb276bd306d96U, 0x3d40dd7abd97fc06U,
  0xbd3811fb3db33409U, 0xbdc936c4bd357fceU, 0xbd82c2a63d84d399U, 0x3c5ffab03db6e197U,
  0xbd67edcd3d19b6eeU, 0xbc573ff8bdc63e60U, 0xbd81ff303dca1341U, 0x3d49fcc6bd69f18aU,
  0xbb4600e0bd0e6b5eU, 0xbdbd81733db90b4bU, 0x3d1491223d1f5c4aU, 0xbcab31f83c9ddf14U,
  0x3dda0f3bbd385637U, 0xbdcb9f1dbd9b0b9cU, 0xbd74e5e8bda43c87U, 0xbd1c1dec3dbbd359U,
  0x3d3e67aebdc4cb3cU, 0xbd3ae9c23c8a13d8U, 0xb8967c003da5fa4bU, 0x3d0a2dc23ba4a050U,
  0x3ce615a43ddb39d3U, 0x3d60c1e23d8ed417U, 0x3d5056623da16609U, 0xbcfb78dc3dc07777U,
  0xbd7c546dbd3a2b5dU, 0xbc3b57383dc5a5b1U, 0x3d8adf893d1ce626U, 0x3d2c62563dc6fb8dU,
  0x3d09b196bda58722U, 0x3ceb1274bb3022c0U, 0x3b9faad0bcae9d18U, 0xbdc1224d3d39dc02U,
  0x3ccf85543d9c93f7U, 0xbd572713bdac0ec2U, 0x3c143d203d82e795U, 0xb981c3003d57fb6aU,
  0x3db186e1bdcc6307U, 0xbb39e1e03c00c7f8U, 0x3cbe0a143dbb24d9U, 0xbcfcf1b03d983b6bU,
  0x3cd3c99cbd9b2068U, 0x3cec98ac3c7dba70U, 0x3d19d62abd5d752dU, 0xbd237fd2bd9119a8U,
  0xbd2a979a3d9da7f5U, 0x3d1dec9a3b689040U, 0xbd9950863cc0688cU, 0xbd9b65ee3da16927U,
  0x3dba21693daf5cbdU, 0x3d00253e3d6d4c36U, 0xbdda01c4bd12c148U, 0xbdd9865fbdbf063fU,
  0xbd6284e63a6f8000U, 0x3cbb33c439f38700U, 0x3d92d0ad3d4cfc06U, 0x3da2b361bd9e7678U,
  0x3d24365a3c3b9770U, 0x3d076d2ebd92db18U, 0x3da2e6893d223222U, 0xbdaa19263dc2228fU,
  0xbb2d3ee03cef8e34U, 0x3da342ffbd0f9c38U, 0x3dda24d9bd9909b2U, 0x3a0d9380bd4820bbU,
  0xbd2fb338bccc0fccU, 0x3d82ab95bda1c0c1U, 0xbd8752343dcecc2bU, 0xbb41c7003da012f3U,
  0x3d225e3a3d32c68eU, 0xbd9d71183a315700U, 0x3d6d394e3dcf97d1U, 0x3c0de9e8bdbe84d2U,
  0xbd8f3940bd963b51U, 0x3dab701d3c1a8748U, 0x3d66927ebbe30f90U, 0xbcd07e10bd91de5aU,
  0xbda33be8bd59df1cU, 0xbc43b2e03daeb685U, 0x3d968af53cf51d04U, 0x39ff6d003d5bb3c6U,
  0xbd744b3abd158be0U, 0x3d8efc8f3cd481fcU, 0x3bb58710bdd0adb5U, 0xba669400bd4511f4U,
  0x3d7a7946bd5c8c45U, 0x3d5649da3cbd409cU, 0xbd94ba89bd12e9f8U, 0x3dc659f7bdae433cU,
  0xbda74c53bdbc449cU, 0xbcd638e8bcbfb190U, 0x3d9c10033b7b3ee0U, 0x3cb7a034baa16880U,
  0x3d9e0161bd022e54U, 0x3d4f74d2bb400f80U, 0xb9c1d600bdbe8e16U, 0x3d8782b53d9c1173U,
  0xb8bc40003dabb8dbU, 0xbdbc4c8bbd8d6c0eU, 0xbc0146d0bd568192U, 0x3ddb7a4b3aa98fc0U,
  0x3dba52adbda56eecU, 0x3db4f4d9bd2c1b84U, 0xbc141168bd5d2eedU, 0x3d0ab97a3d934f47U,
  0x3cb42f043d2fafe6U, 0xbd41ae9d3b032500U, 0x3dca385bbd143016U, 0x3d288c8a3d384326U,
  0x3c15cdc83dd12969U, 0xbda8d93f3dc16701U, 0x3dad57d9bdcac5b0U, 0x3d2830063d90316dU,
  0x3d11bb4a3c9f5ff4U, 0x3d9a22bd3d9d0adfU, 0xbd185482bdcb8a6cU, 0xbc4ce478bd120eecU,
  0xbc4b6c883d61ad2eU, 0x3c952ca43bc495a0U, 0x3d40b75ebd66ebdeU, 0x3db4d4ad3c98bb9cU,
  0xbd495af43d40b846U, 0x3cb459dc3dc8f49fU, 0xba68fd003d7364f2U, 0xbd7dbcb4bdadf0cbU,
  0x3d1264da3d9a2e0fU, 0x3d9e97573dc59463U, 0x3af174403cfe874cU, 0x3cf7e2ecbc453a80U,
  0x3db97b25bd75529dU, 0x3daf9e77bdc382d2U, 0xbc845f643d636b72U, 0xbdaa614e3d9fb1e9U,
  0xbcc6fa383d4a98baU, 0x3dac66cdbd9d17a8U, 0xbdb9bf7abd85859dU, 0x3dadb3713d7a0e92U,
  0x3dbf74c7bdb6d57dU, 0x3dc071cd3ce08a04U, 0xbd12586c3d918225U, 0xbdb95a8e3d936293U,
  0xbd96ba20bc462968U, 0xbc932280bd5d1f1cU, 0x3d80c165bda4cfb1U, 0x3db8f4673d9793c7U,
  0xbd60bd3c3db5fc63U, 0xbc25b2c03dcba5efU, 0xbbc7bee03b6c66e0U, 0xbcc78740bd4d3761U,
  0xbd80201f3d1623c6U, 0x3dc1d7ff3d8fccd3U, 0xbda6a12f3d3acafaU, 0xbd19215a3da50921U,
  0x3dc5f2593c8903d0U, 0x3d8d2eb1bd81140aU, 0xba9f22c0bcc07608U, 0x3d7b6302bdbe479cU,
  0xbd941966bcf0c78cU, 0xbdcf08183d21956eU, 0x3d299c163d4cd88eU, 0xbdd556773dda4c7dU,
  0xbd827560bda602ccU, 0x3a8390003dd78e81U, 0xbd4bf99dbd55de7cU, 0x3d51ca3abccd35a4U,
  0x3d837cd73dc6200bU, 0x3d2f439e3c0b13f8U, 0xbd429929bd2a0e2aU, 0x3cd53184bdc6e2d4U,
  0x3dd75a793cf5b9f4U, 0xbd0267b23da7b5a9U, 0xbdd635663dca1079U, 0x3cb8501c3dc0c445U,
  0x3da3725f3d65d7beU, 0x3db7af05bd313a68U, 0x3dce561d3da7ee41U, 0xbdc87b67bdd9dfa2U,
  0xbd8e8d57bce4a3a8U, 0x3d7f1ac63d232f6aU, 0x3d5ed56ebd461af4U, 0x3dd451cbbd1b04aeU,
  0xbd925f8cbbfaaef0U, 0x3d602e56bd857501U, 0x3d9153273da01fbfU, 0xbc53a0d83d9e4465U,
  0x3cd5375cbdaad532U, 0x3d3146d2bdad6f7aU, 0xbd51df6a3be4c3e0U, 0x3dca51693d17384eU,
  0x3d8d4c91bd53f5aeU, 0xbc903648bdd2819dU, 0x3dc991433bcc68c0U, 0xbc921740bdc67082U,
  0xbd8b193ebd092952U, 0x3d6b4e52bd1d60f4U, 0x3d828b47bcf93a74U, 0xbd89e34abd80b4deU,
  0x3d142a9ebd271bbeU, 0x3d4e90f23bcc4d40U, 0x3d54487ebcbb60d4U, 0x3d88e763bc2d4ea8U,
  0xbc27ab303d0bfdeeU, 0xbc0bcd48bdce28ecU, 0x3d48198ebd37dc98U, 0xbb48dd00bd824245U,
  0x3dbe0e45bda8cbf0U, 0x3da775abbda0ba9dU, 0xbdd3f555bc61f6f8U, 0xbd9308ccbd541baeU,
  0x3cd5d5b43da4a2dbU, 0x3d517c6ebd2bbce8U, 0x3db3cb433c9da4a4U, 0x3dceef29bdc4d5a0U,
  0x3b9e7b40bd8f058aU, 0x3ca676343d94203bU, 0xbb97ee103daae941U, 0xbcc874f8bdb34eeaU,
  0x3da160c9bdc75d45U, 0xbd9601983dc88f43U, 0x3d9377d7bd49f2d7U, 0x3d3f02363c432d58U,
  0xbc611770bdc53424U, 0x3dda547dbcfcb440U, 0xbdaacb843dd59087U, 0xbd053d36bd46cb2cU,
  0x3dc195853dd431fbU, 0x3d81c5bf3dcbe0f9U, 0x3cbb17bcbcb1e00cU, 0xbd4c8d04bd81d334U,
  0x3bc4ea40bd28986eU, 0xbda43c9fbd3c852bU, 0x3d22e386bd64c750U, 0x3d39ed523d65d60eU,
  0x3cf3f0bcbdb6f153U, 0x3dd580abbd73b7f5U, 0x3d83a7d53d176236U, 0x3d6b5d56bd1d3ce4U,
  0xbd185006bd661b3cU, 0x3c74a8883d58a31eU, 0x3a42e8803da20db1U, 0xbd6a1ae53d789502U,
  0xbc4c9ae83c60e880U, 0xbd6c87a9bcaed88cU, 0xbda3518e3c84dfa8U, 0xbb9adb303d4ba316U,
  0x3c35ca68bd946628U, 0x3cc63c84bd2ad5f6U, 0xbd40547dbdce66f8U, 0xbc363a583b933e00U,
  0x3c06e938bdb1309bU, 0xbce447603dc68a2fU, 0x3dab19ed3da6d00fU, 0x3db971b1bdb7f610U,
  0x3d2cf0f2bda0f468U, 0xbd82db013dba3481U, 0x3dc6a1b1bcf98d8cU, 0xbdd9eaa53d88e1c5U,
  0x3d9f8b933da65c6fU, 0x3d4f5fb23b5b2580U, 0x3da024bd3db5eac9U, 0xbd224e8c3d00e566U,
  0xbd9fabfa3dc3c185U, 0xbd3d94e8bd8d657cU, 0x3d13a296bdc5f358U, 0x3cb3d12cbc3aee48U,
  0x3c6b21b83d316b62U, 0xbdc240723dbe993fU, 0x3dd545e3bd6169d4U, 0x3cfd2384bdba53d5U,
  0x3db64b833ca3bf84U, 0xbd148454bc703d68U, 0xbc96b518bbc2d880U, 0x3d9d08fb3d06e99aU,
  0x3c424c30bd65c88dU, 0xbd6eac36bd4abcf9U, 0x3daf1d093d12d9beU, 0xbd20c5dabd8e1d82U,
  0xbd8eabcebdd1215aU, 0xbc2a9390bda03d61U, 0xbcbe6a0cbcd024c0U, 0x3d8e98cfbd33117cU,
  0xbda9d58ebdad3610U, 0x3d3be6c2bd9b9544U, 0xbdaede033dbd2099U, 0x3d8e8c63bc1cd6c0U,
  0x3d5ad61e3d4510c6U, 0xbd5643d53d868f91U, 0x3b0e8d20bdb62cd8U, 0x3c2b9cc83da81bcdU,
  0x3d12b732bd233752U, 0xbd2931423d84eabbU, 0x3d976e0dbd95019eU, 0x3cded114bd86c5fcU,
  0xbddb46493ceacfccU, 0xbc2889683d86a83bU, 0x3c06c7e83d64a0d6U, 0x3d6ef2923d43fdaeU,
  0x3db17a1f3d0bd782U, 0xbdccd07639ae3f00U, 0xbb7aa5e03c97d574U, 0xbd4fc4aabcbfa778U,
  0x3d0d27ce3d1f9122U, 0xbd616cc83d2f5e8eU, 0xbdadc7b53cee1494U, 0x3d03f506bce1b874U,
  0x3dab7a793dadb0fdU, 0xbc14f3d83c29b4b0U, 0xbd503c2abd6b4258U, 0xbd914470bdb27c64U,
  0x3d68abc6bd5e79ccU, 0xbc3dcd703c4ceb40U, 0xbd845bb43cbc0cf4U, 0xbcd7327cbdbef637U,
  0xbc9de984bdc3fb9cU, 0x3d4cf28ebcabe8acU, 0x3d79c2f6bcbcc8bcU, 0xbccc01083d2043ceU,
  0xbd9623fe3d9f147dU, 0x3db37437bd0dc1c8U, 0xbc6b6d20bdd9b4aeU, 0x3dac007dbca330c4U,
  0x3dae43ebbd472846U, 0xbd40b5e43d5edbeeU, 0x3d7c2e2a3d61c236U, 0xbd3f906dbdcf9408U,
  0x3d816c973cd5564cU, 0x3da3962bba12f280U, 0xbd2f6b5cbdcb5be6U, 0x3d4292d2bdc05711U,
  0x3d9d42d7bbd78d50U, 0x3d2f7a6e3d0bc182U, 0x3cacbeec3d7b0f62U, 0xbdd03f60bd671b7bU,
  0xbcd70c4cbda43117U, 0xbc7b98c8bd828b27U, 0xbdb61f3ababce140U, 0x3d57e1d2bd43c051U,
  0x3dd6c243bdd688f4U, 0x3d74440ebdd4469bU, 0x3d33a3423d64d502U, 0x3d9312c7bc6f6188U,
  0xbb83e060bdb78ad9U, 0xbccf2920bda71a00U, 0x3d35cab63d870df1U, 0xbd574330bd2185d6U,
  0x3d137fc2bccd5614U, 0xbc5b9cc8bd16d992U, 0x3dd524c9bd4de557U, 0xbd6910b73dc02113U,
  0x3d36890ebc5883d8U, 0x3cc6e45c3c8cfb48U, 0xbcec82183d8299afU, 0xbd4d41da3cea0fecU,
  0xbdbea226bd279d36U, 0x3d1e2ea2bdda3221U, 0xbc9f571cbd48c756U, 0x3d92013d3d9453cdU,
  0xbd7ffbf3bd928f7fU, 0xbdd439b43d315cd6U, 0x3dbcfaf73ba2fa90U, 0x3db6ff5bbdbcfda2U,
  0xbdca59d7bdd398d2U, 0xbdbd48c93d8e8b8bU, 0x3d1f1216bcda112cU, 0xbd6d43b8bcbdfb84U,
  0xbdab92aa3d725bd2U, 0x3d378b26bb55fa80U, 0xbd7e6be7bbc419b0U, 0x3b313620bd87b719U,
  0xbd8f6abe3d944dd5U, 0xbd2a6f68bcd65610U, 0x3c61f3c0bd00ceeaU, 0xbd7027193d33f26aU,
  0x3d1578fe3cd987fcU, 0x3b82c3c0bd31e4d4U, 0xbda104883cdaa0ccU, 0x3d807c233d8b51a7U,
  0xbdcd27fabb5081c0U, 0x3d843faf3d8fc755U, 0x3d6489c23c8b3de0U, 0x3aa4f4c03c3f1528U,
  0x3d2094d23b11a780U, 0x3c82892c3d8802cdU, 0x3dd3cd253cd18024U, 0xbdcfc8c93cf8836cU,
  0xbdcd91c53db900bdU, 0xbdcd0484bd6ac24eU, 0xbd006e36bdb4ff6bU, 0x3ce98fec3d5ec58eU,
  0xbccfb214bcbfebd8U, 0x3d60082e3cfdc91cU, 0x3ddbcc2b3cd6d90cU, 0xbdaedce2bd3fa83fU,
  0x3d8932af3d9d41b5U, 0xbcc8be10bd975ea6U, 0x3d47e9b63c28c1f0U, 0xbda609823c835940U,
  0x3d812d593d810a41U, 0xbdd8f985bdb48fe4U, 0x3cff6064bdaaa3eeU, 0xbd7499583d828341U,
  0xbda37f8abd80af64U, 0xbd64aa5d3c023e50U, 0xbdb90d0a3a69ba00U, 0x3c99242c3d70f246U,
  0xbda1bb543d175fd6U, 0x3b6a7860bd34db00U, 0x3d35b67abd2a851aU, 0xbbd187e03d999669U,
  0xbda1f90a3db3d185U, 0x3d070632bbb05490U, 0x3c291f48bd548d8bU, 0x3d17a39a3dcb2f1bU,
  0xbd40bab2bd95790eU, 0xbdce0e03bd88d89dU, 0x3ae8e080bdb0c942U, 0x3d9a10cd3c608e98U,
  0x3cef52b43dc7d167U, 0x3dc138edbc10ae88U, 0x3dc466eb3dba589fU, 0x3d7f873e3cc56584U,
  0x3b37cec03d053ebeU, 0xbdaca3a0bdd9b3bdU, 0xbbe097b0bd225bb4U, 0xbd87ed2b3d715512U,
  0xbdc5db9e3d2439eeU, 0xbd8715383dd3b913U, 0xbd25b5143da574fbU, 0x3dcf8dcdbcf5d650U,
  0x3dcdc2ddbd40123dU, 0xbd6a3c8bbcebd2d8U, 0xbd93074e3c01cc08U, 0x3d8c354b3dc424edU,
  0x3d6202723cd80aecU, 0xbd72e3c8bc4c3658U, 0x3d67a36a3cef9414U, 0x3c000a40bbfe47f0U,
  0x3dd8fe013d46e816U, 0x3dc0cf0d3d85e835U, 0x3c74ae50bd2b3242U, 0xbcd1c9e03d816825U,
  0x3dcabafd3d5cdb26U, 0x3c9a3d543cb2afacU, 0xbd59888f3d7a8916U, 0x3dbac819bdd5999eU,
  0x3d1132123ca77034U, 0xbca62334bd8022d8U, 0xbdda49a7bdcda84aU, 0xbdc6295cbcf59500U,
  0x3d1eff06bd74fb86U, 0xbdb6a4d13daa72abU, 0x3d12286e3d71dd76U, 0x3c3ac820bcaae898U,
  0x3d4a9422bdc77982U, 0xbc376c783bbbccc0U, 0x3dbfaf17bd7dc8bcU, 0xbdc7b3763d9fd341U,
  0xbdcbf26a3d87a333U, 0x3c0e4ae83cd1629cU, 0x3dcad47bbdd2b45fU, 0xbdbe8ab4bcebfdecU,
  0x3d805c73bd8e2390U, 0x3dd537f53c137478U, 0xbd7583b4bcb38a2cU, 0xbb2927c03dce2b91U,
  0xbbbbd2f03d8da687U, 0xbdab4746bd31e73eU, 0x3dbad5553d890be7U, 0x3d0882523d2e9956U,
  0x3d70627abce898f8U, 0x3dc6b98d3bc241b0U, 0xbc54afe03d226f5aU, 0x3d4d31423db8db59U,
  0xbd108afcbda25262U, 0xbd4e4d1b3db71e7bU, 0x3d382b7e3daffa11U, 0x3cc1a5a4bd205e62U,
  0x3d6bb27ebd5ec210U, 0x3d9ecef33d898307U, 0xbd5fea52bc52c678U, 0x3dd8c76bbdd34bfdU,
  0xbd6d6ce3bd7491b1U, 0xbbbb8f50bd857228U, 0x3d7aa7c63ddaa503U, 0x3d50d0fe3dd21dc9U,
  0xbbd7b6903d80d3fdU, 0x3bf117d0bdd94e64U, 0x3d771d3a3d6b1c66U, 0x3da5584fbd0aed8cU,
  0x3d43fc7e3d6e84e6U, 0xbd5168e1bca1f538U, 0x3d116646bdcfdf88U, 0x3c348180bd944648U,
  0x3daf446bbdb3c7deU, 0x3d74bb9e3db4f2ddU, 0x3dcb2083bda38131U, 0xbb28e980bda2dcd1U,
  0x3db01b073d1cb86aU, 0x3da072afbd5d942bU, 0x3cf3ddb4bc6ace90U, 0xbd89d1f13d55d88eU,
  0x3d989b9bbd95c698U, 0x3d608b6a3dcea757U, 0x3d7bc18abbfea370U, 0xbd563effba5a3480U,
  0x3d0182c2bc1ec8b8U, 0xbdb8f060bcdb5c48U, 0xbd8cf6fe3cf312a4U, 0xbd96191e3c9be1c4U,
  0xbd961b10bcf225bcU, 0x3dc62a7dbd99833eU, 0xbd817b89bdcb4704U, 0x3dc20c59bd8ea87aU,
  0x3d83d961bc05b840U, 0x3dbcc0c9bdb994a8U, 0xbba08c303ca30b44U, 0x3d9517bb3d95672fU,
  0xbd748b31bd9518b3U, 0xbd8fe1403bed2d60U, 0xbd524a523d8eec7fU, 0xbd26eee6bc939a0cU,
  0xbdd9a1d0bd64524fU, 0x3c40ffc03a5d2880U, 0x3dd2abd7bd5a1a37U, 0x3dc1f351bd49a2aeU,
  0xbd5f113b3d88b8c7U, 0xbda4b4793a0a0680U, 0x3d492ae2bd6d28c2U, 0x3da1e289ba8d4980U,
  0x3d86e23fbdac8133U, 0x3b834100bdb65cd2U, 0x3cb9d7f43d86e157U, 0xbd807be2bcff8820U,
  0xbc9d25b03c84e470U, 0xbd4e0bc53d892d43U, 0xbd88757e37f33000U, 0x3d90157b3c2530f8U,
  0xbd5675313cac8e34U, 0xbd94858a3d4c5eaaU, 0x3c6061c8bdb63eeeU, 0x3dd1defdbdc89218U,
  0xbd80d4b8bd8cd710U, 0xbd1faca2bda8287eU, 0xbc1e8750bd7acdc7U, 0xbd91a516bdd46149U,
  0x3ddb8f4d3d7fbe3eU, 0xbc8c42403d164066U, 0x3b002f803c2fee20U, 0x3cb6dfd4bcbb553cU,
  0xbd5aa5fe3dd43433U, 0x3cffeedcbd162712U, 0xbd6d95e5bbbfe1b0U, 0xbdc0ce383d87cc35U,
  0x3bf18640bd005df0U, 0x3cf0695cbb98a9d0U, 0xbdaef9ed3d81b0dbU, 0x3bce3a40bdd92702U,
  0xbd875abe3dc273d1U, 0xbdbef99c3d6afe82U, 0xbdd4041abd06b738U, 0x3d36ad92bcf064f0U,
  0xbcfae2e8bdd07a55U, 0x3d7d4a6a3c334958U, 0x3d1d65f2bd81b6b9U, 0xbdce1411bd319c22U,
  0xba55ba003c196180U, 0xbdc8ec463dc6749fU, 0xbd25b7803d9b2139U, 0xbd9fa54e3c91581cU,
  0x3cbacea4bda5a441U, 0xbdb2dc023d380e32U, 0x3db46403bda8f15cU, 0x3d4f9cf23dac14b1U,
  0xbd742918bdbeffc6U, 0xbbdb8da0bc421378U, 0xbc3be740bdc1ebcaU, 0xbc9700903dcb0d53U,
  0x3dbd201dbc430260U, 0x3dca1cd7bd4fe34eU, 0x3cce725cbd898dfdU, 0xbd97643cbd8aa94aU,
  0x3d9d7c3dbd871104U, 0xbd61d2663d76ceb6U, 0xbda545cf3bc3f590U, 0xbca04c2cbdbd5829U,
  0x3c8c3dbc3dd9947bU, 0x3b866400bd6aed98U, 0x3c6e6310397a4800U, 0xbb1f36e0bdb4ab8dU,
  0xbddbb07f3d858389U, 0x3dc63979bd84453aU, 0x3d99c475bd0a87b8U, 0xbd82ee6fbca0ce44U,
  0xbd3bb66abd0e6d6aU, 0xbccfd4c83c9991f4U, 0xbdd13fc8bd8bdd7bU, 0x3dbb777fbd97055bU,
  0xbc4846403d39e26eU, 0x3d49056a3dd17f5bU, 0xbcbb80f4bd8bb589U, 0x3d7ad79a3dd72c89U,
