
/**
  ******************************************************************************
  * @file    network_data.c
  * @author  AST Embedded Analytics Research Platform
  * @date    Sat Jan  6 17:07:04 2024
  * @brief   AI Tool Automatic Code Generator for Embedded NN computing
  ******************************************************************************
  * @attention
  *
  * Copyright (c) 2021 STMicroelectronics.
  * All rights reserved.
  *
  * This software is licensed under terms that can be found in the LICENSE file
  * in the root directory of this software component.
  * If no LICENSE file comes with this software, it is provided AS-IS.
  ******************************************************************************
  */
#include "network_data.h"
#include "ai_platform_interface.h"

AI_API_DECLARE_BEGIN

AI_ALIGNED(32)
const ai_u64 s_network_network_weights_array_u64[ 1286 ] = {
  0xbe33d6f9be39741aU, 0xbe1bfbc43c6e3850U, 0xbde7037dbe36d08bU, 0x3ce9d538be346d1eU,
  0x3e334b2d3a8b3400U, 0xbe1790a83dbbdb32U, 0xbe04a9b83dc4a6d6U, 0xbdd3b48f3e0cbabfU,
  0xbe049165bdf96a04U, 0xbd67f994bd7f3302U, 0xbe15a76ebddb2b8bU, 0x3dedbf763de31d22U,
  0x3e1a30efbdeae230U, 0x3e390527be3a229bU, 0xbdd6ede23c9f1928U, 0xbc821fd83ae1cc00U,
  0xbcb45ed03e26bb3dU, 0xbc83e9c03cdf5e40U, 0x3d8e866abd56b900U, 0x3e3510953e20153dU,
  0x3dc94d66bda04d94U, 0x3dfe558ebe0c5b2fU, 0x3dfb3e4abe360379U, 0xbd178c443e1bc8c9U,
  0x3dbd6d7ebdc6a4c6U, 0x3b15bb403e3cd0a7U, 0xbdbaee823c769000U, 0xbde4822d3d1a96c8U,
  0x3dea1c7abdb79cc4U, 0xbdf06e943dacb0a6U, 0x3ce0db803de64a06U, 0x3d8f9b623e3a0b4fU,
  0xbd2f86c43e171d61U, 0xbc6ac4c03e2af469U, 0xbd85e6a1bdd5e554U, 0xbdf2f2003d1b4368U,
  0xbe158ef2be1917d1U, 0x3dc06442bdd0e31dU, 0xbe37d7b23dab6da2U, 0x3c1bbf60bdd87aceU,
  0x3e2b65f93cce7f20U, 0x3e154f27bdf4520cU, 0xbce9c960bdc776e4U, 0xbe3407e43d180368U,
  0xbe00918e3dabe5ceU, 0xbe222ffa3e0f0c13U, 0x3d36f5e43e15a66dU, 0xbe3b5f253e288f7dU,
  0xbd3148a03d9ab1aeU, 0x3ddcf54abaef4d00U, 0x3da9c3263e090d99U, 0x3e066fad3dd3b676U,
  0x3e09925f3bb807a0U, 0x3defd46abe3889acU, 0xbd58af7cbe334b5cU, 0xbe06317bbc45acc0U,
  0xbe2d93983e1783a9U, 0x3e031a993dd19ba6U, 0x3e12a5bd3bf51960U, 0xbd4479f43dc2348aU,
  0xbcb6dc103e10f009U, 0xbe16e073be28005cU, 0x3d28a10c3d916392U, 0xbdb54c85bcc26610U,
  0xbe29620f3d9490b2U, 0xbd3d118cbadbb100U, 0x3e37de4b3e208e53U, 0x3dc71fd23e32361dU,
  0xbd954929be35bf11U, 0xbd3ee780bc95cc50U, 0xbd9198de3e00521dU, 0xbe0758643c888b58U,
  0xbdf8afac3dca3f42U, 0xbdb19ec63e30ac01U, 0xbc6902f03dfec5b2U, 0x0U,
  0x0U, 0x0U, 0xbc4199783d6e88e8U, 0x3d24b4703d67ab98U,
  0xbcc07038bdb7c2a0U, 0xbd1cc410bdc7fa68U, 0x3b93a2d03d08afacU, 0x3aa72740bc48d8e0U,
  0x3d943744bc3b1770U, 0xbcb07a00bd1aa0e4U, 0xbcd1bd483d0a15ccU, 0xbd75abddbd18a8feU,
  0x3d4e0f40bd26e194U, 0xbd8f0990bda8a8abU, 0xbbde28003c547248U, 0xbd27cee23cdc14b0U,
  0x3b6b1da0bc2ebaa0U, 0x3dba37e43d991042U, 0x3d462c44bd6e9b9bU, 0x3b53ec803ba29520U,
  0xbce778acbc435600U, 0xbc4185003c96360cU, 0xbcae325cbbde9430U, 0x3ccd66a83d9a6164U,
  0xbd91b9fcbc75ec70U, 0xbd7e55a1bd876c12U, 0xbc94fde83dc615eaU, 0xbd0a5ff23d638484U,
  0xbae2acc03af9d600U, 0x3d2aa9c03d750ed4U, 0xbd512ba03d9543a8U, 0x3ac43ec03d884fc6U,
  0x3d049eacbd395037U, 0xbd94bc7d3c08ef50U, 0xbd952115bd8be231U, 0x3dbac930bdbc6cc0U,
  0x3c3c8cd83c3c4838U, 0xbca2677c3d1fbaa8U, 0xbce3bf483d5cd408U, 0x3da82d46bc9ea174U,
  0xbd06ac54bdb787c2U, 0x3d399ce03bc7d4e0U, 0x3d22d3d83d8f02a2U, 0x3dc95256bd7667f2U,
  0x3aea6280bda7346bU, 0x3d113b10bd1e9614U, 0xbd55688abd8c34e0U, 0x3bf1c420bd9b17e9U,
  0x3da99972bda95c7fU, 0x3d7e852cbcc105d8U, 0xbd90330abdc49b88U, 0x3dad99debda2b249U,
  0x3d3455bc3b007040U, 0x3d9c7b963d254898U, 0x3d9ef7f23c8dec44U, 0xbd44b4503cde54e0U,
  0xbd881aed3d69bfc0U, 0xbc841c203d8ae626U, 0xbd59c577bd902212U, 0xbcd342d0bd5de09dU,
  0x3c65fb48bdd2d9c0U, 0x3b28a0a03d31e748U, 0xbc973140bd9fc1eaU, 0xbc9f2dd8bd3cda15U,
  0x3dad5dd2bcfabbdcU, 0x3d11dff03c981dd0U, 0xbd474e653d577facU, 0x3c2d30f03d9bb37eU,
  0xbc1fa690bdb79357U, 0x3daf31d0bd09a706U, 0xbd741163bd2dfc2dU, 0x3cfc6790b733a000U,
  0xbd4b7adb3d8d46e0U, 0x3dbf334ebd6c8d17U, 0x3ca059c0bd87523eU, 0xbd6449ea3be6ef80U,
  0x3dbe540cbdce8429U, 0x3d1dc3d43da17620U, 0x3d471a40bd0c1e54U, 0xbc82d238bdcfb906U,
  0x3d37778cbd187b44U, 0x3da813f2bd2dfab7U, 0x3cbe49603d7b5af4U, 0xbd0fb31cbbe6f4b0U,
  0xbd7bf0d03c25fca0U, 0x3cb6b220bd338d7bU, 0xbc7124d8bcf73010U, 0xbda1d50abc6cc6a0U,
  0xbdc3f0f23c91e264U, 0x3b141ec03d8c5bb8U, 0xba873b80bdb798b4U, 0x3db29ac23d8b7016U,
  0xba47df003dcbdd64U, 0xbda45faa3d9bd36aU, 0xbd90090a3db48d3eU, 0x3cb945503d173a88U,
  0x3cdd3bb03dbe4c30U, 0x3c7cb9e03d8d2bc6U, 0x3d9a6ac63d8d2a6eU, 0xbb07d3803d14a0b0U,
  0xbc0076e0bdc9ef2cU, 0x3dd01f143d85b04eU, 0xbd919f323ccf5110U, 0xbdc3508ebc247e78U,
  0xbdccb576bd97786cU, 0xbd75b6acbd6c5f07U, 0xbc296958bd4cb35cU, 0x3c8e8d043d0b9594U,
  0xbd289b06bc375e78U, 0xbd4dd4a03dc22620U, 0xbcfd188c3da9f0feU, 0xbd1183a83ccf7fd0U,
  0xbc805e243d871766U, 0x3c7958f0bd021310U, 0xbda6769abd0dedc2U, 0xbd470d6ebd9c7a1dU,
  0x3cccc1083d03d8dcU, 0x3bb791a0bdd528afU, 0x3dd24c68bdc984c2U, 0x3d836d1c3d948ce0U,
  0xbd4234c2bd879ad6U, 0xbd66620a3daa4b68U, 0xbccb43dc3d8aefd0U, 0x3d3428c43c32f6c0U,
  0xbc29b4403c744140U, 0x3d24ad64bd40d40bU, 0x3dba933a3cdae018U, 0x3bc45950bdc46375U,
  0x3d2e23d8bdc91067U, 0x3dc2ba203caf8778U, 0xbd238b643ced3580U, 0x3c97d0783c4a4cd0U,
  0xbdbf1c56bccd2964U, 0x3d4475d43d496f88U, 0xbb0ced80bd1fbf54U, 0x3d07f3e8bd8f4168U,
  0xbd365cd53dbfc4aaU, 0x3d04d6883c817cd8U, 0xbd52d8463d47a4ecU, 0x3bcdf6c03cb868a8U,
  0xbcc5874c3d9e3f4cU, 0xbdb265e23cf24ae8U, 0xbd5a75113d8b5794U, 0x3ba3cc90bd083452U,
  0xbc56bdc8bca80394U, 0x3cf4acd83b258b00U, 0x3d5de2bc3dcefc32U, 0x3cc9d7f83db3a8aaU,
  0x3dceedc63d685b08U, 0xbd29f5503d57d948U, 0xbcfc34b43d248898U, 0xbd2c50c23dcbe434U,
  0x3cd213b8bd9ddc80U, 0xb9a53c00bdaa2a77U, 0xbd6b887fbda2ef63U, 0xbdc77ccfbdb07360U,
  0xbcee37b4bbb103d0U, 0x3d42221cbd39fa5cU, 0x3d15f45c3d1a148cU, 0xbd1801be3be63660U,
  0x3dc37b723dc46770U, 0x3d28d564bcf74f4cU, 0x3d9b15febd07dc16U, 0xbcef90cc3d3079c0U,
  0x3db5ee58bd02ecc8U, 0xbd9ac551ba9ec680U, 0x3d46f8103d7d33a8U, 0xbdb780803d4c9c04U,
  0x3d6193b03998d200U, 0x3bf1cec03c570918U, 0x3d02cd60bd02e4b6U, 0xbdae7c0f3dca3686U,
  0x3dbf30743d8b25f8U, 0xbdd14f87bb8c46d0U, 0x3db07da6bd778711U, 0x3d85101ebdcef558U,
  0xbda5eca7bd00e7ccU, 0x3c4f6f10bd68108bU, 0x3d569320bdc24cdcU, 0xbd172918bdb76d3aU,
  0x3d992fb63db8aba8U, 0xbcfc79e8bd1b8692U, 0x3cfb5198bcb39998U, 0xbdb21a08bd8bf621U,
  0xbdbb3398bc0b96f0U, 0x3dd3fae83d790c44U, 0x3c9fad1c3d81f524U, 0x3c8e7c74bdc8b408U,
  0xbdd23c71bd5d9599U, 0xbda64e4c3c0178f8U, 0xbcc9cd103b044100U, 0x3b3e8fa0bd94e764U,
  0xbc99b6843dd28254U, 0x3cc4b680bce8bb84U, 0x3d7d72e83daa5684U, 0x3cd275b8bdc13e84U,
  0x3dbcf4c2bdd3f284U, 0x3da85ed6bdd0705aU, 0x3d5557783d703b5cU, 0x3db79e443d825440U,
  0x3c9741d83bebea60U, 0x3d878d643cbaef68U, 0xbc199cf83dc21c6cU, 0x3c8178b8bd4715c2U,
  0x3c172fb8bd7b374aU, 0x3bde36003dc03a20U, 0x3d8f4af2bd063242U, 0xbd1c46c8bdd5617dU,
  0x3cb4e0683d4cf328U, 0xbd5e365dbcfd329cU, 0xbd42e01b3ce8e880U, 0x3da36fca3c402698U,
  0x3d404364bd5a2dceU, 0x3d5eb1fcbcf70b80U, 0x3db3d41abd0ceb76U, 0xbd8ee650bd546d9bU,
  0x3dc4dd763cd1c0e0U, 0xbbe51f203db085e4U, 0xbcd459f03d92e88eU, 0xbd68a5903cd72518U,
  0x3da7f88c3dad1250U, 0xbd7e6560bcc0d85cU, 0x3b0a88a0bc81760cU, 0xbcb96280bdb21e39U,
  0x3dcc6692bdac266aU, 0x3da4a9143cb32910U, 0xbdd00ebf3db374baU, 0x3d8ef38a3b11c660U,
  0x3dd4b744bc017338U, 0x3c8f56e83cedd8d0U, 0xbdc7f6debd9e2d79U, 0x3d1cc1603dc98718U,
  0x3d3a1e80bc808b34U, 0xbabcbc40bd1b2254U, 0xbcc90680bc119f48U, 0xbd9c6fdd3d8a71c8U,
  0x3ab4d2003dbc5a08U, 0xbda6b77dbc751638U, 0x3c2393e03d9c399aU, 0xbd795994bd93f266U,
  0xbdcf37783cb4d048U, 0x3d185f483db19bbaU, 0x3c19b2483bf7ca30U, 0x3d6fc904bd13bc7aU,
  0x3a167d00bcf052f4U, 0xbdc5ed89bd5750cdU, 0x3d5898d8bca5d164U, 0x3dceeda43d813c08U,
  0x3d6c26a8bda53b51U, 0x3bf29360bdb7e21bU, 0x3da1c6bcb7356000U, 0x3dc509703c2e3588U,
  0xbd1142c6bdc24d58U, 0xbd3251ecbd3017b9U, 0xbd182226bd667a59U, 0x3d26b508bdc4e784U,
  0x3cd5e5f0bc9a4844U, 0xbcd00798bcdff8d8U, 0xbd6529edbd263792U, 0xbd86643ab9892000U,
  0x3d080a40bc9651acU, 0xbd416036bd4da115U, 0xbca2a3043b173d20U, 0x3becb060bc99060cU,
  0xbb3b6160bd9fd0b9U, 0xbd9006a7bdab7680U, 0xbb91a2003d0dc134U, 0x3d7fdac43daaa49eU,
  0x3c9cda70bdd2b4d7U, 0xbbbedfe03ca5c2ecU, 0xbd793e37bdb07b21U, 0x3d6af6f43d9f2dd6U,
  0xbdd365f5bd99e212U, 0x3da00ede3caefe80U, 0x3cb1e4c0bda73432U, 0xbd80ee7b3d7d63e4U,
  0xbd3170a83c9139d0U, 0x3d7ef3443d575850U, 0x3cc8d7e0bd09af62U, 0xbd8e192bbd83bba3U,
  0x3dbd87123d8f335cU, 0xbd9c6819bdacd2cbU, 0x3bb53ca03d0a91ecU, 0x3d402a88bc030d48U,
  0x3cebfcf03d6cc114U, 0x3d92423c3bab0c60U, 0xbd7a33e6bc9a838cU, 0xbd9a1242bdcd2e4bU,
  0x3c6f2c10bc5b0c20U, 0xbd6ede9bbd15a774U, 0xbdab55003d5c4a10U, 0xbcd89fec38d77800U,
  0xbbbd3480bd42ace0U, 0x3d82d9ae3da28594U, 0xbd5791313d11a640U, 0x3cfcec48bd87d024U,
  0x3ccb70403d779718U, 0xbccce20c3c5a0f90U, 0x3da93a7c3c255c68U, 0x3dd3d15a3dbc6680U,
  0xbd096a6cbd752daaU, 0x3dbee536bda2d7adU, 0x3d511fe03dce65d6U, 0x3daebbc83dc1d4caU,
  0x3d8026ac3c87d9f4U, 0xbdad4711bd1df44aU, 0x3d932b4ebc0e0f90U, 0x3da1bca43d9fb226U,
  0xbdc355cdbb9e2a00U, 0xbdad184a3d40805cU, 0x3d83893e3dc87036U, 0xbdc93a3c3d26817cU,
  0xbd04e744bc950700U, 0x3d2731d8bd81d766U, 0xbc10d4903d92a514U, 0xbce0c978bd194606U,
  0x3d9941c8bd5f2b80U, 0xbd2378bebdbd45a2U, 0x3d60c740bd543ff0U, 0x3dce75e43da665e6U,
  0xbc7a21803dbd9684U, 0xbd87bfcc3db51fe4U, 0x3d9f461e3da386faU, 0xbc914f3cbc868bacU,
  0xbcbad7b0bce6df30U, 0x3d897c62bd87fff4U, 0xbcd45abcbbec93c0U, 0x3c6041d0bd0165c8U,
  0xbc30f9d0bd3d3ec4U, 0xbd459c4a3cf3e600U, 0xbcbeadb0bd22404cU, 0xbda448ce3d96e824U,
  0x3d20c46cbdc4eec3U, 0xbc19c0e8bdbfb4a5U, 0xbd84c948bdad2954U, 0xbd95847e3dd53636U,
  0x3dccb150bd2b7ea2U, 0xbd7f89fbbc5f45e0U, 0x3d683388bdb9f940U, 0x3dd42cd63b0ac540U,
  0x3d0be834bbb6bcd0U, 0xbd48bb2dbd7e6fecU, 0x3d08e9903dcb4abcU, 0x3d262010bd6060b7U,
  0x3dd35980bdaf58c8U, 0xbd26f348bd5f525bU, 0xbd4c77e83cc22dc0U, 0x3d7ad7cc3c00c750U,
  0x3d08ac90bcf67668U, 0x3c1e0f08bda69e68U, 0xbdbe6b39bd878664U, 0x3beffcc0bd965c11U,
  0x3dae137ebd46b532U, 0xbdc50d4abd8e8776U, 0xbd3978383be16a20U, 0xbd58b4993afdfe80U,
  0x3d2f626c3dbcb368U, 0xbd81fb28bc1668f8U, 0xbdb076e3bd397649U, 0xbdc87f933d8bc604U,
  0x3ce710c0bceb22f8U, 0xbd1ac508bc4135b8U, 0x3d86d4ec3daa94c4U, 0x3caab8883dbb2d78U,
  0x3dd15d583daabc68U, 0xbcd09094bb35ad40U, 0x3d4a31a43d16dc88U, 0x3c2266083dc50cb6U,
  0x3dc903ca3d9c0eaaU, 0x3cfbefe03c8598acU, 0xbcc026383d197fa0U, 0xbdcdee77ba6cf000U,
  0xbc8433f03cb831f8U, 0xbdb2a4a5bd4588a7U, 0x3db6b5f6bdd413a0U, 0xbdc904ae3d876b38U,
  0xbd3885183d867796U, 0xbc869734bd2ef193U, 0x3db3faa0bd951544U, 0x3da7f6ae3a178180U,
  0xbd93d828bd0388ccU, 0x3d12a4303cee4b60U, 0x3d060fcc3c96c3c8U, 0xbdd1fd183c82da50U,
  0xbdbd0a66bd94eec8U, 0xbd3c7c14bd201afcU, 0x3d92fa3c3d2a41b8U, 0x3daaacd83d84a0a2U,
  0xbdad04643db64a72U, 0xbd0d08c83d82b8beU, 0x3d03524cbb8cd830U, 0x3db0d45abdae0373U,
  0x3dc8be12bd3478abU, 0xbc80c7bcbd9ca09aU, 0x3dcb2e343d29e500U, 0xbc2740b8bdab44d3U,
  0xbd9a7295bda549dfU, 0xbdb01ed0bd74d73cU, 0x3d9d9820bd9d1e1fU, 0x3cdb50603dd2b26aU,
  0xbc8d8188bd9e7b42U, 0x3c838a343dc73dc2U, 0x3dd29ec43cb15870U, 0x3caf28483d69043cU,
  0xbbbf01b03d96d0d4U, 0x3d875c5cbd5c64aaU, 0x3d1854f0bdceeefcU, 0xbd27c3de3d8cd816U,
  0x3dd380acbd6cf050U, 0xbd604763bc3afc68U, 0x3d2f6c383bdd0280U, 0xbdd057533c956730U,
  0x3cea29d03b7d49c0U, 0xbd49c0f13dcd9246U, 0x3da6b8b43c1e5030U, 0x3da12508bd9ecfc5U,
  0x3d88dac2bd329e75U, 0x3db9acb03d9d5e7cU, 0xbd9af07ebda207b6U, 0xbd57709b3dcb2d98U,
  0xbdb20de03dbedf86U, 0xbc85b798bd8ebaf1U, 0xbd8caea6bd176744U, 0xbd0333a63cb6a770U,
  0xbd4a78a33c099208U, 0xbd88f630bd3ad541U, 0x3b401b40bca3a0fcU, 0xbdbf9a323dbbb4d6U,
  0xbd1efd603d8a5ae2U, 0xbdb90b69bc217880U, 0xb9d4cf003d482c44U, 0x3d2cbec43d5578bcU,
  0x3d838a96bdc8135bU, 0xbd5bb0273d7df758U, 0x3c9dacd83d9637feU, 0xbcb1fda8bd044b9eU,
  0xbda00752bd166c06U, 0x3d9821f43c022338U, 0x3d9482923b2a4fc0U, 0x3d2fbbf0bdb5473aU,
  0xbd1c30f2bd4615bcU, 0x3da66238bd6868fbU, 0xbda236373d94aa4aU, 0x3d8b0f2cbda451d6U,
  0x3dac5b483dc73ba8U, 0x3d93173e3a28f100U, 0xbdc5d83e3db15152U, 0x3da5b2943d909d9eU,
  0xbdb10514bdc0fd11U, 0x3d283f803db8c0b2U, 0xbdb3d902bdb3bde8U, 0xbdbe3f07bdb5d3aeU,
  0xbd5d4ac3bdb59753U, 0xbd3b43073cceaa50U, 0xbd86a1f43d14cd88U, 0xbdb880e03cb5a228U,
  0xbdb171353d3a4b90U, 0xbd63e135bd0404fcU, 0xbcebcf0c3d7b93a0U, 0x3cf1bbf03db5d154U,
  0xbc89750cbda9dfa5U, 0x3dd5a1443c39aaa0U, 0xbcac80703d15f0f0U, 0xbcaf2fe83d038c88U,
  0x3cbb4910bd747e24U, 0xbcdd72003d53dfe0U, 0x3dab0d723d710be0U, 0x3cd9f898bd873227U,
  0x3d8501e0bdcf09ebU, 0xbb9ff7703c5ddaf0U, 0x3dcfb5e0bc026660U, 0x3d9243a63b840ae0U,
  0x3d11c75cbd85c2d0U, 0x3d3bc9603da486c0U, 0x3cfce8a8bc512838U, 0xbcf717a03d8f1de2U,
  0xbdafd1d2bbf8c540U, 0x3dd40fd4bc9202e0U, 0xbabc2780bc8e4444U, 0x3d236eecbd2739dcU,
  0xbd87b8c93c9711c0U, 0x3ccd1c303d97e86eU, 0x3c8a81f4bd816c32U, 0xbd80d9263d6039f8U,
  0xbc9179b03dcc49baU, 0x3d42f11c3d833302U, 0x3d18d6f83d83f4d8U, 0xbd36e3dbbdc79238U,
  0xbc9e76603d78d9ecU, 0x3d24cbc8bdc7d738U, 0xbc272bf03d61460cU, 0xbd871f6ebd530a33U,
  0xbcdd7c243cce4168U, 0x3d2b97283d6ce278U, 0xbb4903a03c912160U, 0xbc8ca770bd3d0636U,
  0x3dcda6bc3d9fa374U, 0x3d172f5cbb5687c0U, 0xbdc681a73c5368c8U, 0xbd8fda283d20dfecU,
  0x3bdf25d0ba2f9b80U, 0x3d87e358bcdafef4U, 0x3c07d6703d47b208U, 0x3d37bec83ca40ee8U,
  0x3d87d684bc69ea60U, 0x3d120c98bdc57b85U, 0xbd04a6963da63302U, 0xbb753cc03d525608U,
  0x3d4f7c1cbd8ddcc2U, 0xbca4e86cbd806739U, 0x3da0e5423d4706d8U, 0xbd54eb8b3b8c2600U,
  0xbdb8842e3d416904U, 0x3cd6f320bdb8538fU, 0x3daa41143d8c1660U, 0x3db0a9a6bd305a48U,
  0x3d047ca03dc0e7feU, 0x3d3ad728bba2e8e0U, 0xbca826acbcd677a8U, 0xbdc34920bdb5803eU,
  0x3d1917bc3ce69338U, 0x3d4eb75cbcb686f4U, 0x3c512eb83a1c6f80U, 0xbc0c1f40bbd743b0U,
  0x3cb6a268bd305b46U, 0x3cb43af83d4c7334U, 0x3daa731cbd04ba1eU, 0x3ce90de03d6d2cdcU,
  0x3b5004c03da5389aU, 0x3d349a88bbcd68b0U, 0xbdbf9faebcd29694U, 0x3baba3a0bdb12aa7U,
  0x3b310c60bd1effacU, 0xbd3502a5bd41bc48U, 0xbdb008903d27ccd8U, 0xbd9f843e3ca16d58U,
  0x3a77d680bdce3d48U, 0xbc96d0e4bc8b58d8U, 0x3c7fd1603bf4b6a0U, 0x3c1a60e83d80e474U,
  0x3be8b2b03d359dfcU, 0xbcbe44acbd54f997U, 0x3d73d2543ca6b530U, 0x3b93b3503c54d490U,
  0xbbbf51203c9499f4U, 0x3d9d7e9a3ced5ae8U, 0xbcb195e4bda36e7fU, 0x3d94de403be3fc20U,
  0x3d696a303d5d6fc4U, 0xbdb97fa6bd90af8eU, 0xbdc4d69cbbd8e8d0U, 0xbda63cdbbda5b828U,
  0xbc5e21d8bdb4b2d5U, 0x3d09bb08bd7458fcU, 0xbcfb0414bdc4ec3bU, 0x3d226a183d877e12U,
  0xbc68abe83d548eecU, 0xbb03bfe03b6703c0U, 0x3db398bcbce039e8U, 0xbda2bac8bc9f112cU,
  0x3db8e2863dc4ae66U, 0x3bdff7c0bd460b43U, 0x3d9aa23abd7b6687U, 0x3cbb67c0bd2aeed6U,
  0x3d2809e0bd55e960U, 0x3d9817883d979dbcU, 0xbdba28f53dd40022U, 0xbd57c0603dd4b03eU,
  0x3cdd81a03d907f8cU, 0xbc9ec5c03a5e0f80U, 0xbb8c0e30bdd54bb6U, 0x3bf5e810bdd2d4deU,
  0x3bb962e0bd422e56U, 0x3d46538c3bdff9a0U, 0x3c32d508bdb49c03U, 0x3dba3164bd36794bU,
  0xbdc4899b3d9e293aU, 0x3db2b9903b30bae0U, 0x3dc5e0883db14eaaU, 0xbd80968a3d123754U,
  0xbda3cf163dc71f46U, 0x3d5510fc3db5a762U, 0xbdbd8e5e3b960a40U, 0xbdbd5f94bd2857caU,
  0x3da60a9ebd66c235U, 0xbd88dd75bd4d146bU, 0x3d372ac0bc78a960U, 0xbb20cc203da18d96U,
  0x3d43ce54bd866d7eU, 0x3dd3e820bdb68a9bU, 0x3dae9c943d1e18d8U, 0xbcee9d103d8489eeU,
  0xbca70dd03db4f0daU, 0x3d5be8bc3cd44270U, 0xbd9cfa6abcb3ad30U, 0xbd5b6167bd8f193eU,
  0x3d96541ebd69761dU, 0xbd84b2d23cc9a6b0U, 0xbc8bf310bdaa21abU, 0xbd191246bcddbd84U,
  0x3cd6bdd8bd9c1886U, 0x3b9b5ac0bdca63b2U, 0xb87dd000bd072052U, 0x3d9a3980bdcb1712U,
  0xbd1fa3c2bd8bafaaU, 0xbd6fb2bd3d65059cU, 0x3d078b2cbc85a5b8U, 0x3cee19303db39108U,
  0xbc70ce103daa1de2U, 0x3d7a24b43dc91238U, 0x38f81000bd237d22U, 0x3d70fa5cbceafcf4U,
  0x3bff0fa03b1162e0U, 0xbc9d35503d589964U, 0xbd88348abca9df98U, 0x3cd60950bd407933U,
  0x3d9b08dcbc965044U, 0x3d6ab428bda42f84U, 0x3d85a3383b567ba0U, 0x3d73e0c4bd667599U,
  0x3c967888bc24a448U, 0x3cdc6388bd67a477U, 0x3c89cfb4bcad9aa8U, 0x3d4a92ccbdbf6c47U,
  0xbdbafce7bd9f6006U, 0x3b99c080bdd5b81dU, 0xbd577f333d7d1634U, 0xbda381cbbd971ff8U,
  0xbdb0b794bd46fd08U, 0x3ce5e948bdbda34fU, 0xbc8d1d0cbc8485c4U, 0xbdcb614b3c9f6aa0U,
  0xbcaf071c3d97e976U, 0x3cc5aab0bd9dc818U, 0x3c0bf3783dbaa6bcU, 0x3c99a11c3c767668U,
  0x3d3c8608bd6b97aaU, 0x3c8fcbbc3dccca4aU, 0x3d8ff1123d6c32b8U, 0x3d083ff8bd81217eU,
  0x3db06ff43d3d24d0U, 0x3c0b0f40bd0c88feU, 0xbd2edd00bdd27edbU, 0x3db080923d95cf4aU,
  0xbd66a54dbd8bc3b2U, 0xbda83baabc3f8370U, 0x3db885be3dd59270U, 0xbdb37d87bd6a9011U,
  0x3c4ab5f83d61cad4U, 0xbd03ddbe3dcf1b52U, 0xbdb9fb28bb6a5bc0U, 0x3dba7e7c3dd4f9d0U,
  0x3db8c626bd7dfbc7U, 0x3c6539a83cebf930U, 0x3d2250e83cecdbc0U, 0xbd3cf7673db0d016U,
  0xbaa401003d886726U, 0xbd70bf09bc90c8b4U, 0xbd426bfcbb196000U, 0xbc5d92c0bc948818U,
  0xbdc82d4fbda6b9a8U, 0xbcbd8bb0bd9a9fb8U, 0xbdcdf2e4bce97e6cU, 0xbc55d1f0bda76cdcU,
  0x3c06b828bcfe9724U, 0xbd35fc673d8c3ca2U, 0x3d435c24bd8f3474U, 0x3d8bc4b03cc9dad8U,
  0x3da8979a3d93af3cU, 0x3d91a746b9faf900U, 0x3c276c98bd5cdbf8U, 0xbc0128f83d487148U,
  0xbdac64903daad0aaU, 0xbd17f5583d9c20a0U, 0xbd1cffd4bc846e50U, 0xbd33bc683d94b1a6U,
  0xbc3ec110ba89b400U, 0x3d53c4b0bd0b920eU, 0x3d47a124bd2eb7d8U, 0xbd63e90a3d07d54cU,
  0xbd16f612bd7cbca4U, 0x3ccc3c20bdacb53cU, 0x3d9db7a2bd772f4eU, 0x3c921920bc454440U,
  0xbdc86e83bcf81868U, 0x3d6323f4bd30b493U, 0xbd90823a3dc8bdb2U, 0x3dacdacc3cde00b8U,
  0xbdba1cb63d2efdd4U, 0xbd67e706bc8ec338U, 0x3cc73dd0bdada3e2U, 0xbd1128e6bb2ef180U,
  0x3d49bb68bdb32454U, 0x3dabef4c3db1529aU, 0x3c597e48bd41eda2U, 0x3dd4996cbd500705U,
  0xbd786134bc507960U, 0xbceb7db03d213e8cU, 0xbca9b514bb940ed0U, 0x3d7597a03cd8a310U,
  0xbd516414bdbe4dbeU, 0x3db40f38bd04ce68U, 0x3daafba2bd09d078U, 0xbd59e1aabd24db72U,
  0xbd819378bc8496bcU, 0x3d90e9383d08d3a8U, 0xbdc0f2953d6c8f98U, 0x3cd32648bd1a7b72U,
  0xbdc8889f3d8ca63eU, 0x3dbe2e6c3dab6b06U, 0x3cac5d30bd6a24b2U, 0xbd714d72bc90f4acU,
  0x3cf58940bd345032U, 0xbd555287ba806c80U, 0xbd10f28ebd2e3893U, 0x3d0a73ec3b8a6ac0U,
  0x3da53adcbbfffc50U, 0x3dc9638a3d7071ecU, 0x3b5e9fe03dae1868U, 0x3bf3c1d03d893a20U,
  0x3d3a4a1c3dd4ce52U, 0xbc0f8150bda480a1U, 0xbd92e704bc189008U, 0x3c46ee483d929a0aU,
  0xbbf393703a321b80U, 0x3d804fa83d04f17cU, 0xbda9e6f4bdbc5290U, 0xbdb58370bdd54a93U,
  0xbb800fb03c86ecdcU, 0x3d1d02083d868480U, 0xbdd541663ccc05e0U, 0xbcc0519cbb6843c0U,
  0x3d4bebbc3d1f26dcU, 0x3d87aebc3d1d5a14U, 0x3d433df43d523744U, 0xbc92263cbd9883d5U,
  0xbd9f37dd38ebbc00U, 0xbd99d6b9bba2ae00U, 0xbcc108c4bd56a987U, 0xbc33cfe8bbb69a20U,
  0xbb9067a03c383878U, 0x3d838128bda8392cU, 0x3ccb7750bd43189cU, 0x3d568c283d5195a4U,
  0xbd752849b9a5ed00U, 0xbd32376b3dc792ceU, 0xbdbf4cbcbdca6c8cU, 0x3ca18cf0bca9cd0cU,
  0x3a887d40bd2267eeU, 0xbcea2e84bdb85940U, 0x3dc58e903dbc59eaU, 0xbd7e95653d411938U,
  0xbd0f2140bdcdcc88U, 0xbd9f4c52bd24f028U, 0xbb530d603d9e8b80U, 0x3da35cf4bcb0dafcU,
  0x3dab86ba3d4ae4b0U, 0x3bf684503d8b6948U, 0xbd7b8158bc4e13c0U, 0xbd7e3917bd4d10f9U,
  0x3da2b2febb3ba520U, 0x3da458ea3d9561f4U, 0xbdbf7ef63dbca41cU, 0xbd81267a3dac6a38U,
  0xbd05f8e43d75ddc8U, 0xbc378ed8bd95834aU, 0x3db1bc843d5f101cU, 0xbb2ce660bcc319c8U,
  0x3d2ba0a8bd82110dU, 0x3d20b2d8bdbb8ba1U, 0xbdd33476bd37365eU, 0xbdb5b62c3dadd582U,
  0xbceebd143d18ad40U, 0xbd86a73abd6a3499U, 0xbd61735c3d9a00a2U, 0x3da68b42bd3e7a90U,
  0x3cdb6f70bdb990b6U, 0xba855040bcadc168U, 0x3d2e63443c79e5a8U, 0x3d8be68ebd3f4dceU,
  0x3dc83634bbfef510U, 0xbcabee783ccb15e8U, 0x3c7669a8b9d64900U, 0x3b670060bdbbd2c5U,
  0x3dd043e63cad60b0U, 0x3c3fe3883c969ea8U, 0x3dd200043dd07488U, 0xbd982a923db09bbaU,
  0x3d0a6f043d2f2c74U, 0xbdd589b0bd38a9c1U, 0x3d85766a3d568a7cU, 0x3bd109003dd1d97aU,
  0x3d34bc58bd946b69U, 0x3dd300c03c68d1a0U, 0xbcfbeee0bdace32aU, 0xbd0e9a76bdaa2c9fU,
  0x3d9aaec6bbe13d70U, 0xbc8e1f9cbd0f6530U, 0xbd93eaa83db0b236U, 0xbd0bb1203cd35400U,
  0xbc31c7c83d459328U, 0xbce6874c3dbb0408U, 0x3d9e979e3ce6e068U, 0xbd3032d43d1019e8U,
  0x3d28aba0bd3db8d0U, 0xbd8527d13d715f48U, 0xbd7ebc2bbc24f190U, 0x3d2600943d5cdf94U,
  0x3a2f05003d106964U, 0xbc8f0218bd568b29U, 0x3d4d3720bdabe327U, 0x3ca490883dc826eaU,
  0xbdbac8e7bda82850U, 0xbd7682af3d8ac44cU, 0xbc86045cbca0944cU, 0xbd62ffa1bc2af8e0U,
  0xbcc40ea83d8dabe8U, 0xbc210f083d512e3cU, 0x3da2cd7ebdc2891aU, 0x3dcb4438bd3b089dU,
  0xbd95dbe2bdb0cd94U, 0xbd4b1cf63dc3a3beU, 0xbd9d450e3c846cccU, 0x3d9416f0bdcaafb2U,
  0xbbdc9e703c357880U, 0xbdbce8423baf9d60U, 0x3d623f303c9f2f40U, 0x3d061e503d728d80U,
  0x3d993ec0bd6ae418U, 0xbd03d67a3ce37af0U, 0xbdcff9e9bd9a58e0U, 0xbd571384bd122496U,
  0xbd8d49803be87910U, 0xbd97d06f3dd233eeU, 0x3c3065603dbe21baU, 0xbcd371f8bda625ddU,
  0x3cf314a83d93cfeaU, 0xbd97c11e3dba3c12U, 0xbd9fca6abc99d588U, 0x3d2525c83c2dedc8U,
  0xbc478f703c19e040U, 0xbd15ace2bd38a95dU, 0xbdc7b9273d4e1638U, 0xbca5db5cbdb65266U,
  0xbd804d413da10164U, 0xbdbc93a8bd2d3d39U, 0x3cf233003dcafedaU, 0xbdb901b33d231234U,
  0xbda03d08bd7f7a93U, 0xbc0ae9c83d6a06acU, 0xbdb1fb8f3d39b858U, 0x3d0183d0bdaa6835U,
  0xbda9fb883c67adc8U, 0xbb5351203dd469d6U, 0xbdab22263cd0ded8U, 0x3d966ec43c972e60U,
  0xbd2a54483be0bb10U, 0x3dd53daabba3a5f0U, 0x3ca511883dd0a7d4U, 0xbd7c676a3c3ef598U,
  0xbc7c6b08bd380351U, 0xbdbedd473dab1424U, 0x3d8fe832bd8b26d8U, 0xbdbbae98bca6e3fcU,
  0x3d5e8bcc3d2cd21cU, 0x3da9413c3dadeeb0U, 0xbd8c7db3bd89c014U, 0xbd564c3bbd72ff37U,
  0xbd22b1ac3d5ead88U, 0xbdbcb4173bafdf30U, 0x3dce25bebdcd1591U, 0x3d9525d23d1f18c4U,
  0x3daaf70ebdaebc08U, 0xbd3865aebda5bbf4U, 0xbda77f023d72008cU, 0xbcd3e168bb9cc7b0U,
  0x3dd467903dad45a8U, 0xbd9fbacabdc59e06U, 0xbd9b05843d684340U, 0x3d10bf383da0ad64U,
  0xbc183818bd4c8086U, 0x3d1112e43c703f60U, 0x3d8270563d44a9e0U, 0x3d58d1e43d026304U,
  0x3d7769b03d8a574aU, 0x3d55e6a83c8abb14U, 0x3d0d4558bd867b92U, 0xbd353be13dc0f336U,
  0xbd9ae8163daf0a68U, 0xbd8a89063d8438b0U, 0xbc9b622cbd8256beU, 0xbdbaa4373dd09c7cU,
  0x3d95a1f2bd8d4cfaU, 0xbc0600a8bbbb7790U, 0xbdcd490fbd91c57cU, 0xbcceac28bd623db2U,
  0xbdb3a0ce3ce40ab0U, 0xbdcaa7a03db0f2c6U, 0xbd9650653b633800U, 0xbdadcc90bd977558U,
  0x3d66b9f0bd82ff66U, 0x3d96cb583c871380U, 0x3da5af6c3bf70be0U, 0xbd11c8203d3b0e28U,
  0x3db3dade3cdeedc8U, 0x3d9f217a3d801adcU, 0x3d01ca483d9b3600U, 0x3d570ad4bc8a83fcU,
  0xbcd843f4bd3208a1U, 0xbb5adf603d7c01e4U, 0x3d8b9e803bdee3d0U, 0x3dbd5c323cc49c70U,
  0x3d4d58f8bd578d90U, 0xbcc1aeacbd959e9aU, 0x3d3c2120bca4920cU, 0xbd6dcc263d4416acU,
  0xbca159983db62e50U, 0xbdbf6ad73dc91668U, 0x3d43f6e43d945daeU, 0x3da7849c3db22a68U,
  0x3db5eada3d156264U, 0x3c2eb670bc92bf80U, 0x3d2b2380bcd0afa4U, 0xbd994af6bcb08a90U,
  0x3aed90403d3b1f14U, 0xbd6c324cbdb6aa51U, 0xbbadc4403d5ea620U, 0xbd250b48bd1ee1ccU,
  0xbc8323103d593fd8U, 0x3dcaba823dc137a2U, 0xbcd66f4cbdbe183aU, 0xbda6a98fbdc920afU,
  0x3d709d543cc67778U, 0x3d2819f4bda38e4aU, 0x3b685b203d687d10U, 0xbb8ee8803d2bb724U,
  0x3d8986843dd2bbcaU, 0xbd7253953d68c28cU, 0xbd08d9cabc2ffa00U, 0x3dc9ceea3c81dd58U,
  0xbd3341143d8611a2U, 0x3b735fa03d8f9590U, 0xbd54ac53bdb2928cU, 0x3be949c0bd81b320U,
  0x3da46c1c3da03f66U, 0x3d4e40583d64a480U, 0xbcbe69c0bc4f4958U, 0x3d8300e2bd46a748U,
  0xb9377000bd95a419U, 0x3d4d9fb4bcd9b364U, 0x3dc98a4e3c964b9cU, 0x3dc0ddc83d70d240U,
  0x3b8565a0bc3be030U, 0x3c47e6203d99bca6U, 0x3d346838bd70c49fU, 0xbacfccc0bc0dbaa8U,
  0x3c599f303dbe52ccU, 0xbda2c20ebdb41f54U, 0xbce68948bdcb3856U, 0xbc1e4770bd136110U,
  0xbd92d97abcb7fabcU, 0xbb80fc30bdb49df2U, 0x3d2c0a50bdc41c29U, 0xbd44999a3d720fe8U,
  0x3c4276b03d910ae8U, 0x3c0207703d8bcffaU, 0x3d6e44c03da0a63aU, 0xbd5f8e0c3daf2274U,
  0xbc4a03c8bd83c010U, 0x3d73e7303da6c64eU, 0x3c5695483dcdb93cU, 0x3d6939343c9f6bb8U,
  0xbd294b54bdd22c3dU, 0xbdb24c3e3dc85462U, 0x3d5f2e1cbd9be09eU, 0xbc0f9bd83d5ad71cU,
  0x3d5df0dcbd8d3990U, 0xbdabb307bc778d80U, 0x3c6a2920bd335754U, 0x3d8abf20bd1d6b6aU,
  0xbda3e7ae3d80a082U, 0xbc128c60bc8b4ac0U, 0xbdbd8407bd0d68ccU, 0x3dab8ff2bd1f7590U,
  0x3db7cf4abcede02cU, 0x3da5d9ca3d58257cU, 0x3cf791d03da380ecU, 0x3ce54b083dc5f0e8U,
  0xbd75d67a3ca8f158U, 0xbd075d28bd85f6bdU, 0x3cf9a6a8bd8647a8U, 0x3d8d63c23d821bf0U,
  0x3d78b284bd7da11eU, 0xbdcf4e58bd13f29aU, 0x3c530e70bce0a894U, 0x3cb588b03d6e2fc8U,
  0x3d87b96abd133c10U, 0x3d6fde883dc689caU, 0xbd903accbdbe5658U, 0x3d2ff3383bf0a950U,
  0x3d81605a3d8e8d5eU, 0xbd93eba63dae5b86U, 0x3c05a988bdb18038U, 0x3cdef8603d0b6960U,
  0x3d319ae8bd874149U, 0xbd4ecbbf3da9f3e4U, 0x3dca5fc83ccbf1d0U, 0x3c695d90bc3de6a8U,
  0x3d9d0638bc8e3498U, 0xbdc7092fbd27503eU, 0xbccdd0d03d1bd348U, 0xbd9a443c3d9eed8aU,
  0xbd0870e03d206a5cU, 0xbc9cd66c3dad179cU, 0x3d9ee2603bcfdfc0U, 0xbdd0bf9dbc6d2dd8U,
  0xbdbc9bc43c0901e8U, 0xbdb99729bdbff6fcU, 0x3d1fdaa03dcfb278U, 0xbd3378b23d5ff3a0U,
  0x3dbb4c7a3da41c64U, 0x3d9e7a8ebd6b1403U, 0x3dc79eaa3db089d8U, 0x3dbafe783c9f9418U,
  0xbd442adcbd488512U, 0x3d0689ecbdaddf7bU, 0x3d8404e4bd1b62a4U, 0x3d1215d0bd9ec564U,
  0xbdb66d6d3d122b08U, 0x3bd72fa0bd9840c4U, 0xbc4bb148bcfb1600U, 0x3d037978bcc28bbcU,
  0x3dc52a163d9be746U, 0xbaaf52c0bd36d04cU, 0x3ceee9383d901adaU, 0x3db404803cf01850U,
  0x3aaa3c403d58c8f0U, 0xbd86e95abbf42970U, 0x3d8fd6c43d00dd90U, 0xbd847f1fbce0abecU,
  0x3dbd37ae3d70d618U, 0x3d2e39683dc30264U, 0x3d251638bd0c3c2cU, 0x3b228820bd547ba1U,
  0x3db691b8bc213160U, 0xbbdfc060bd9a3419U, 0x3bbd2e303d7e593cU, 0x39a9c4003d2004b4U,
  0x3b882f40bc060698U, 0x3dbcdf7c3d6c3bc0U, 0xbcd749543dbf113aU, 0xbc806f283b81e0b0U,
  0xbb178a00ba5bf880U, 0xbda594833d67ab78U, 0x3d8e3110bda324c2U, 0x3db8b2c6bdcbebecU,
  0x3d8b7a74bdb52041U, 0x3d8ef1b2bcbe6618U, 0x3dd47de0bd8d97c2U, 0x3c91f848bc717fb8U,
  0xbcb622e4bab7b3c0U, 0x3db12becbbac52b0U, 0xbd8293b43b7e6f60U, 0xbd700b05bd5483cdU,
  0x3b68b6a03c409978U, 0x3dc1117cbd49a74dU, 0xbd78b01d3ccc2a88U, 0x3dd47766bd97958dU,
  0x3da785323d65e380U, 0x3d61bf4c3db2ac5cU, 0x3daceddc3d5a4f68U, 0xbdc861493d0e401cU,
  0xbcaa1610bda73649U, 0xbb3df440bc1eee38U, 0xbcfed2c8bcbb3808U, 0x3d98b9ecbd980a52U,
  0xbb8a49903d263bc4U, 0xbd7eac6c3d8a77ecU, 0x3d8a3ab63bb039d0U, 0xbcf821e83d78430cU,
  0xbdc45935bd74235aU, 0x3d3d667cbd57e161U, 0xbd8ebafe3d34f540U, 0x3dbe9ac8bc336528U,
  0xbd033ecc3cb03a68U, 0xbd7842c93c919a2cU, 0xbdb82d163dd1d796U, 0x3d1fa988bdbe9984U,
  0xbd9c8b843d25d7a8U, 0x3dbe5692bd188aceU, 0x3db22eb03dc5af9cU, 0x3cede9b83d11fbe8U,
  0xbd9bf3893c429cd0U, 0x3dcf372e3c842624U, 0x3c652eb0bdbfb84aU, 0xbc9921503cc63cd0U,
  0x3d2aec643dd07112U, 0x3d2e5e10bd8203aeU, 0xbbb7ae10bdb039a4U, 0xbdd21c3bbcd6f6d0U,
  0x3d5fbdd43dba8f54U, 0xbcc442d4bdc1d2ffU, 0x3da8f2c23c8a1b04U, 0xbdbd89153cdb8900U,
  0x3dac34debdc464afU, 0xbd7c09123ce21d08U, 0x3da416bc3d7c4bc8U, 0xbbf8b6e03db644c6U,
  0x3d5ede60bdc2a822U, 0x3dc6724abdc2d7acU, 0x3d5ad0fcbc8af3f4U, 0xbd6b668dbd727f58U,
  0x3d042a603d79c4a4U, 0xbd07bc0cbd81ec71U, 0x3d3dd1d4bd93122dU, 0x3af67880bdb150cdU,
  0x3d44ce943da0bda2U, 0xbd5dfe263d9400beU, 0x3dc22aeabc1a0410U, 0x3daf2938bd9377a8U,
  0xbd7db29dbd84f4a3U, 0xbc641bf8bdacb6a5U, 0xbd6fa31f3d6130d4U, 0x3d820a9e3d961c9aU,
  0xbdbc45163cee5540U, 0xbab2a1403d4c20f4U, 0x3d1f4450bd4f5e64U, 0x3d22fe3cbd7bcdb2U,
  0x3bb0e2a0bc489ee8U, 0xbd6417a63d5229ecU, 0xbc88c79c3d84dbd4U, 0xbd8eba51bd4f11e9U,
  0xbd221c783dc893c2U, 0x3d967876bd81fe58U, 0x3db1c2c0bdb4a646U, 0xbdcb31fbbc431878U,
  0xbd155c84bc498c30U, 0xbbb00850bd81d83eU, 0x3d6260a8bcae8c08U, 0x3da44c3c3d33ddccU,
  0xbdd2cc5bbd49c910U, 0xbd6ef8823bcb7820U, 0xbda1cb073d9d9904U, 0x3d044294bc3b5368U,
  0x3da1dccc3dc96b74U, 0x3d7b53e83d05a8d0U, 0xbc9b68a4bdd3faf3U, 0xbd4a1e1c3d92228aU,
  0xbca652543d750754U, 0x3d99a11ebb1cc860U, 0x3d72bd54bda08281U, 0xbd857bc73dcfa734U,
  0x3d01a56c3d10962cU, 0xbd7d8ad8bd5e677bU, 0xbdab80203d984202U, 0xbda157503da209a4U,
  0xbd34135bbdb28a28U, 0x3db965363dbf88baU, 0x3dce14c8bd76daaeU, 0xbd331f15bd70b20fU,
  0x39bc0100bd932d91U, 0x3d8bb56cbdb9da81U, 0x3d0e9d54bdad5ed4U, 0x3c85af3cbd88e8d1U,
  0x3d4a52b83d324214U, 0x3da6a700bdd160a9U, 0xbd497c953d9901f0U, 0x3dc3a136bbde20b0U,
  0xbcd1c0a03c777d50U, 0xbdb67d28bd6a1a7dU, 0xbcb59e403dc334bcU, 0xbd7b07cb3dca305aU,
  0xbdb1eef23d73da10U, 0x3d9db3663db782eeU, 0x3db459e6bd1664f2U, 0x3d2decfcbd8233baU,
  0xbd683c473d854b3cU, 0x3cb0c6a03dbc0d54U, 0xbd994f81bd3f665aU, 0xbd8fe90e3bad75b0U,
  0x3cb30698bc626960U, 0x3ce910103da1c27aU, 0x3dc6914c3d7f528cU, 0x3ce786c83d0b21c8U,
  0xbdd338ae3d6f66a4U, 0xbdd149e7bcc74564U, 0x3d7fc4ecbd8fba50U, 0xbdaa1c1bbd3143ccU,
  0x3baca0d0bc45f880U, 0x3d40a7b0bc4e2a20U, 0x3dbeef60bdb8427cU, 0x3d95f0bc3d87d0d6U,
  0xbd484ae5bc9dd028U, 0x3c0c53e03dd5bc3aU, 0xbd0dab8a3da62482U, 0x3b6342e0bc852de0U,
  0xbd6061bc3d4349e0U, 0xbd1d45303da475eaU, 0xbdae6a793d8009a6U, 0x3dc27cb03d7a31f0U,
  0x3cd00e20bc0c7888U, 0xbd0c9c44bd0b8dacU, 0x0U, 0x0U,
  0x0U, 0x0U, 0x0U, 0x0U,
  0x0U, 0x0U,
};


ai_buffer g_network_data_map_activations[AI_NETWORK_DATA_ACTIVATIONS_COUNT] = {
  AI_BUFFER_INIT(AI_FLAG_NONE,  AI_BUFFER_FORMAT_U8,
    AI_BUFFER_SHAPE_INIT(AI_SHAPE_BCWH, 4, 1, 6048, 1, 1),
    6048, NULL, NULL),    /* heap_overlay_pool */
  };
ai_buffer g_network_data_map_weights[AI_NETWORK_DATA_WEIGHTS_COUNT] = {
  AI_BUFFER_INIT(AI_FLAG_NONE,  AI_BUFFER_FORMAT_U8,
    AI_BUFFER_SHAPE_INIT(AI_SHAPE_BCWH, 4, 1, 10288, 1, 1),
    10288, NULL, s_network_network_weights_array_u64),   /* network_weights_array */
  };


/*!
 * @brief Get network activations buffer initialized struct.
 * @ingroup network_data
 * @param[in] ptr a pointer to the activations array storage area
 * @return an ai_buffer initialized struct
 */
AI_DEPRECATED
AI_API_ENTRY
ai_buffer ai_network_data_activations_buffer_get(const ai_handle ptr)
{
  ai_buffer buf = AI_BUFFER_INIT(
    AI_FLAG_NONE, AI_BUFFER_FORMAT_U8,
    AI_BUFFER_SHAPE_INIT(AI_SHAPE_BCWH, 4, 1, AI_NETWORK_DATA_ACTIVATIONS_SIZE, 1, AI_NETWORK_DATA_ACTIVATIONS_COUNT),
    AI_NETWORK_DATA_ACTIVATIONS_SIZE,
    NULL, ptr);
  return buf;
}

/*!
 * @brief Get network weights buffer initialized struct.
 * @ingroup network_data
 * @param[in] ptr a pointer to the weights array storage area
 * @return an ai_buffer initialized struct
 */
AI_DEPRECATED
AI_API_ENTRY
ai_buffer ai_network_data_weights_buffer_get(const ai_handle ptr)
{
  ai_buffer buf = AI_BUFFER_INIT(
    AI_FLAG_NONE, AI_BUFFER_FORMAT_U8|AI_BUFFER_FMT_FLAG_CONST,
    AI_BUFFER_SHAPE_INIT(AI_SHAPE_BCWH, 4, 1, AI_NETWORK_DATA_WEIGHTS_SIZE, 1, AI_NETWORK_DATA_WEIGHTS_COUNT),
    AI_NETWORK_DATA_WEIGHTS_SIZE,
    NULL, ptr);
  return buf;
}


/*!
 * @brief Get network weights array pointer as a handle ptr.
 * @ingroup network_data
 * @return a ai_handle pointer to the weights array
 */
AI_DEPRECATED
AI_API_ENTRY
ai_handle ai_network_data_weights_get(void)
{
  static const ai_u8* const s_network_weights_table[1 + 2] = {
    AI_PTR(AI_MAGIC_MARKER),
    AI_PTR(s_network_network_weights_array_u64),
    AI_PTR(AI_MAGIC_MARKER)
  };

  return AI_HANDLE_PTR(s_network_weights_table);

}


/*!
 * @brief Get network params configuration data structure.
 * @ingroup network_data
 * @return true if a valid configuration is present, false otherwise
 */
AI_API_ENTRY
ai_bool ai_network_data_params_get(ai_network_params* params)
{
  if (!params) return false;
  
  const ai_buffer_array map_activations = 
    AI_BUFFER_ARRAY_OBJ_INIT(AI_FLAG_NONE, AI_NETWORK_DATA_ACTIVATIONS_COUNT, g_network_data_map_activations);
  
  const ai_buffer_array map_weights = 
    AI_BUFFER_ARRAY_OBJ_INIT(AI_FLAG_NONE, AI_NETWORK_DATA_WEIGHTS_COUNT, g_network_data_map_weights);

  return ai_platform_bind_network_params(params, &map_weights, &map_activations);
}


AI_API_DECLARE_END
